memory_initialization_radix = 2;
memory_initialization_vector =
0000000101000010000000100000111000000101010100111000000010111011000100011010101000001011100101111001100110111110100001000100110110010011111110001000010010101001100100000001001000010010011010110001000001101011100011010010111000010011101110101001010110001001000011000100010000011101000110001000001010100110000010101000101100000001011111000001000011100001000111100010110010010000111100001001000000010010000001011110111010010100101001001000010101001110100001100000101010001001100011011000100001111111000010001011011100000100011100101000101000111100000000010100100110011011110101001000000011110010000100101100110100001010111011110000000001000110101010111001110010001010110001101000011111011100001000010011001100000110010001010000001000000000100010101111101110000000011101011000011011110001000010101010101010010100010110110000001110101111000010000001001010010100111000011000111001100100000011011000001110001101001001011010001011010001000000001110100000010100001010011000000111111110100100000001110110000101101111000001010000011100,
1001000000000100000100010111101110011101110010001000010110101111100100100011110010000101101111001000110000111001000011101011001110001100110001000001100011101011001000101001010100000111101111001001001100001111000010100110100100010000011100010000110011100110100001000010000000011000000000111000000001011101000100101010001110001010011100110001111100100000000010000011111010001001000100100001100010011111100111101001101100001011011110110001110101010011000100110010001000001101101011110000111010101111100000101000010010010111010010110000011011110101000000011111100110011000000010001000010111001101100110111110101010011101011101111001011001010101100111110001101010011110110101110000001110100010100101000101010010000101101000100000101110000011101000011110111100011101111101010000111010010011101000110001001100000101110011011000101001010110000000111000001100011101001100111000000101111010100011000101010100000000000011011001000000000111100010101010000010010000000100100001010110101001000011100101001100010000001001110010000001000110,
0000100001011001100111110100010100001001101001111010000001110110000010011001010110001111111111001001011010101101100001001100010000101010111111101000001101101001100000001111000110000010000111111001001001110001100011011010101000010010000110101001010011100101100011010101001010000001011011101000101011000100100000111100010000000000100110111001001110110110100001001011110010010010100000100000011101101100000101011110100110010100100011001001011111101100101000001000010010001101001100000000110100000010000010110001010010001010010100011000111010001001100101101111010000000000100110000000111110110110000000100000111100000100111110000010100000010001000101010000111000001011110110101000011001111100100010111110110000001010101110001000010101010111100000100111101010001111111001010000010111111110000100011100011100010000110000111000110010110100000011011110010110011011100100010001001101110011000000010001101010001101000101101000000111101100000010100111010010000011010001001000110000110011100000100100111110000110010110100001000001010000,
1000011001100101100010110011101100000000110010111000101000011011100101110100101000011000010101010001000101111000100010001001101100010111011111000000100011011101100000110111101110011011001110000000000110000101100010101010000010001111000101011000001110001101000000011110000000000101010101011000000011111000100001011111010010001100100100100000111101010000000001010111111000010001001101001001001001111010000000111111101110000001101101110000110101000100000010000001101010010001100000110000010111000100100100001010010010001010101111011000111111010100100001100000001000011001010001100001100111101101000001001110111000010000000110011000010010110101000011111010001100001110010000100001000000010111000010100011111100000110111011000000000001000101000000001011011010001101010100000000100000100001100000110110000010000001110111001001100110000001100000000010101010001101011000110000001001101001000010101100001010000111001001100001000110100010100101111001001010001011001010101000110100011001100001111000000000000001010100101001011001001001,
0000110010010010000011001011000100001001101011100000000110000001000001011111100010000100100011110000001000011011100110010101110010001111100110000000101000101100100001001101111100000001110101100001010110011011000000101001000100000111100111100001100000100111100101111101101100001000011000100000101000010011100010001010001010011010011101101000110100110011101000101000000010011010110100101000001010110000000101100001011110001010010100110000100000001001100100011100000100001101001100101000000110010010100010110001110010000100011100111000101101101010100001011010000010010010110010010001110000000100000101000111101100001111011010010000010101110010000101111000001000000000001000111000110100101100100010111000101100100010011010101000111000100010000110111010101010001001101111111000110110111111000101101001010100100001001011010000001010100111100000101000100100001111101000101000110011000001000101101010010110000110001110001000100000111000000011010111110100001000110000010000111010110000100001111010001110010111011110111001110010110100,
0000101000001010100100100101101000001011001001100000101001110100000000111110101000100000100001110000110101011001000011101011101000100100011010001001011110010110000000101000001000000011110011100000111010011000000001011111011100010100100101110001000001000000000001111011010010001011110101111000011010111001000000000011011100001011010000001000001001010010100110100110101000001011100111000000010101111001000101101110100110001101100100111000010010111101100000101000001110000101011100010000001111101011100001110010111000001001001001110000110011110111100111110010110100100000010111010001101010111100000010101010001110000011000011101001010001001010000001011001001110010011001110100001010001111010000011100110011010010011010000001000000111000101000110001001000110001101110011011000011000100010000000111010111100000111101110011000100010011111100010011001100110000100010001011000101101110110000101001001110110001010011010110001010101010101100100111110110010000110101010111000110010110000000000001011101010010000000010010000000101111001,
1010011011010101100011111101110100000000110110101000111101111110000000011101000110010011101111001000001101000000100011001101111010010011111110111000001101010001100000000101001000001100001110110000100010000110000001111101110100000011100100111000110110100001100110010101111110100100100000101001101100101001000100110010010010010001110011001000011001111110100100001011111100011000010010101000101101101011101001010101101100011010100100000000101000011101000101001010001000010111001110001000100001110011100000001000000100100001100111000000011101010110100111110000100000010000000100000001011000001000000011011101110100010010101101110001101000100100000101100000001100000110011011101001101011110010000001010000010010001111110100111001010011110110100110011010001010010001000100010000110111100100000100001010000110000110110011000001100011000111000111101010101000001010101110010001100111001100000010110101011110001001011110000001001000101110100101011010000000000001010001011000100000101000000100111101000100000010001111011001010000010111,
1001000001111001000011110000011100100101100100000000111100010110000010110010011000000101100000010001010011100010000010001001010000010110010001011000110010001100101010110011010100000100000010010000000000111100000101110010001110001010111011000010110001101110100100010000011000010000010011111000001110100010100110101001000100010100000101111001110111101110000010110001010010000010011011101000001000011110000000000011001100000101110010010000101000101100101000111000001010010011001001110001000000010101100001100000001110000000011110011000110001101011000110011000000010001110010010111000111110111111000000001111101010000111101110001000000000100010100000011011000000100000001110111000000110101100101001100010111110010010011101111000001011010000000110110011110110010111101110101000110011100000000010001101111110011101010000000001000111101111100101000111110110000000010111110001011101000010100000000011111000000101101001101001000000011111100011100010011000000010000110001000011010110100000000101001111110001111101111100000001100111110,
0001100000000001001000010110110010100010110001000001100110111110000001001011000110001110000111011010001011010101100001111100001110010110010101001001000110001111000010100011000110000100000100110000100010101111100010001011010110000101101001001010000011101100000110000001100110011001100001001001000011110001100000011100101000000101001101010001010110110010000010111100001110001110110101001001000100001100000001010010111000001011111011101000001101110011000011110111110110010111101100010010000011001011000100110111000110010110000000000001001100000110001000000000010100000101101101011010100110101110100101101100000110010011000000100000010111001000100011100101100110001100001111011000001001000010001000110110101100001101100010110001100100101000000101111110000100010011001010000000111111100001000000111001100100010000010100100001010110001100000001000110011010000001011000000000010100010010101100000111011000000111111000110000011101000111000010011111011000010000001011000000000011110110100101001101110000001000111000111000101011111100,
0000101101101101100011011010100010001001101011001000100101111011100000001100001110010011110101000000101011000001000101100010110110010101000110000001100011110011001000011100001100100000101110100000100000110010000110011001100110000001001001101000101111110101100001001110000000000011100010110001001000111110000000000111111100011111010001110001110100111010000100100111010010011001010110000001111100101010100100000001010100001001110001000000100101111100000011011111010000001100000111101001111000001000000010001011111100000001000010000001010110110101000010100110101110011011001101111001010111111000100101101000000010010011100111111001000011111111100000011000101000010001101000011000001111011110000001111110100000000111010101111000001110000111000010110101101100010110101011110000011100011000100111111001110010000000000110100000010011101101100111011110010010000100011111101001000001011000000000000001011010010000001110001000010000110000000001011001111110100101100001101001010001111111000010110101000100011101010000010000001111001101;
