000000000000000000000000000000000000000000000000000000000000000000000000000000000000000000000000000000000000000000000000000000000000000000000000000010100101011110011101000101111010000110111000100000101011100110101101100001000000101000000111100101100100000110011100101110110001111000111001100100110110100010101001010101101000000110000001000010011100001110001101001101101000101111110001100000011001101010001110000110001010001111000001100010011011101100001110011001100001100011110110000100111100011101010001000000000001000001100111100010010101110000000101010100111011010000101001
100001001101111110110100100111001001100100001101001111010110111001001101110000011000110010011110100101111010101111000000001101110010111010111110001010011111010000000001000111000011011111101000101101111110000100011000111001000010001000101010100110101011110000010010111100001101001111000011000101101010111000100101010010101001000101000110100101010000001000011011011110000001000110101000100110100100110100101101001000101010010000101000100011101001111110100011001110001000000111100101101000001100100000010101010111110011010000110011001011101110101000000011001010011010011010011100
000110110010001100101000111100110001011001001101001101110010011110100110000000111000100100110000000110100001101110111110100100001001110111001011100001001010010100001011011011110011110111110110100010110100110111010010111001010001110111101101100111100110111000010101010111000010000101011111001111011010110011001100011100010000100100111001100100010001000011000011100100010100111110100100100000100111001101110001000001011001001000010101000011100011110010011100011011000010011110001101110000100010100011000000111111000000011101010010100111100010110000001011100110111010001101001101
000100000001010010001010111110101000000111100100001010110111111000000100001100000010001001100001101000011011010010100010000101010010000000111010100001111010110010011100010011001010000001000101001011001100111011000100110111101000000110111001100011111000000110011011100001111011101110110000001000010110000000111001000110101001110001010111100011011010011000000011110111111001100111010110001100101101011000101010011101111010100001011001000001111000001000010010011110010011000110010011001001110001100001011101100101110000010101001100001000001100110110010101100000100000110011001010
001101010101100000001001100110010000110111000101100100000011110110010000000111010001010111011111001010111100000110001001011111011000000110101010001000101100011100001010000110110000101110010110000110101001010111010110110001111101011011000101100000011000011010011001100000001001101011000011000100010100011000000111001010110010000101011100000110100101010000100001100111010001101101000000000011000111011000100101000000111000110111101100000100111100011110100011101100101011000011011100000110011110111010111100000111011000101010001010100110010101001010100010111101000001100111010010
001000000001011100000010100001001100111100101011100000010010111001011010010010101011100010001010101010110010010100000010010110110011001000000101000011000001111100000001100011011001001000010100101011111110001110001010011111001001011001101010000001101000101010000110000001101001110100111100100101100010001100100001000100000011011111100011001000110100010010000101100010000000100110101100100010101000111010001111100010010000011110010100001001110010110010010100011111000001000101000100000110000010000000011000100000011000101001110111100100110110111010011100110001100000001111110110
100100110001101010101100011001001001100110111011000111011101101100000011101011000000000100001000100011110110101110011000100000000000010110101010100000000010011000110000000100100010001010011001100001101011000000000101001100010100110101100001100011010100111000110111101110111000101010100101000101101000101111001011110110110011111011001111001010101001011110011111100011100100001111011100101010110000010110000111011000001100111011011000000001101111011110100000011110100010000000110111100010011000101100000011100100011000110100101000000011110011010110100010011111010000110011100101
001110100000000100001111110100111000111011011000100101010000101010011101011101011010100011101000100011000111001111000010110011011000000011010011101000110100000111101110111101100011100011001110000101101110110000111010000111010101100110011101100111010010110000101001010010001000000000011001100010011001110110011110010100100001100011101001010000010011100010001111100110100011110001111000001001100100100100100000010001110010010011000101010000001111100000100111010011011001011011001101100111010001000100011110100101001001110101010110001001011101101000010011011111100010000101011010
001010011000111100000001010011111000000111001110100001110111101100110101000001100010010011101101001101001111010100111010101010011000101110110001000000011011001110011000010100110010001000111010000000110100101011001101100010010011000110101000100111111110111100000110111001100101100010001101100001110111000000000110111110001010010100011000000001110110100000010001000010110001101111100101100000101111111000110010001001111010011010000010000110001000001000100000001101100011000100001011000001110011100000011101111001111000111100110100100010101101011110000011100000110000110100001000
001110111011001101010000110100100001001001011101100010100110100110010111010110001001010000111000000001111001110100010111001000111000011101011010100010001101011100011010101001010000010101110001101100001110011110100000000010111010000010100110101101110111000010010011101011100000000101001010001000111010001110000000111000100000110110101110010011010000011100000101000001101011111010101011100011111100111100101110111101010000010001110101000001101011100000101010000010110011011100000101100100101101110010011110100000010011000001001000101010111001001110011010100000110010100111110001
110000011110111010000101000101100000100111101011001010010000011100100100111000001011100011011000001011100000000100100101010110111001101001011000100111000100010010111011000111111000010101111100101101010101101010101100001001010010110001110010000101010110100100110100100011000001100011100011010001000101000100100111001111010000111101101111001111010010101110001000110000000000001010101110101000110110111111000000000001010000000011110010001000110110011000001111001011111001001100110110000011000110110100000101000010111011100110111111101001110010000010010110011111101010010011110101
000100011111101100001010000100001001010111110010010011011110101110110000001111111011100011000101001011110010000000000111111100110001001100000100000001110010101000101111101011110011101101111010000110100101111100011111100110010001010111001100000101101111000000011001000111011001001011110001001000011100100000010100010111011001111101001110010111010100000100000110001001101010000110000011001010101011011100100110011111000001101000000111101011001111001010011010011010010011100001010100001100010100111000001111010100110010110101011001000001000000000010011110001000010001000101110111
001111011000000100011110001101000010111110100010100000000000111000000101001001111011011110011100100000001101111000001011100101100000000100101011101001011000000100001000000110111001010101101101001000001100010001001000010001111011010101001110001011111000010010000001011010010001000010110110000110010011100000110001001001100010011110101111101010100110000100111001000100111010001011000111100110111100010100010111010111001010100110100110000110001000111110100001100100100011001100101100101101100011010110111001011111100000000101110101100111101000111000001100011001010001011001000011
110001000100110110101001010000010000100001010010100001010100101010001101000010111001100000111001100101111011011010011110100100001001000011111111000011010101011110110101010110101010101001000110001001111000001000010110000001001010000011100100001000111000110100101001000100111011011011100011100011000111000110011000110110010000001110000110100010111111111110011000100110110010000101111011001000100110010010101010101001111001000000010011010001110110101000111111101001000001011000101010000001101000001010001001001111011000000011000101101011101000001110100101101010111000011010111010
101110100101001101001100001011000000110110010000001011001000010110010011111011100000000100100111100111011100111110101001001000010000101001010001100001110000100011001101110111101001110110001110100001001001001110011110011110110100100011000001100100111000101110000100010001010011110100001010100101110011010110010111010001011010110101101101101101110111011010110000100111110010111100100100000000100010100010000110000111100000101110000010001000100011101110011011011100001001010110111000001001111101001101011110110010000010111011011010100011010100111010100001001100001010001010001000
000001010000001010111001111100111011011010101000000101110001110110011111010100001010110000011010010000100101111100100000010010010001011001111010101010101111110000100110010100011001001001110111101010000100001010000111111111000001000100010110100010111100111000001110000101100100011111000110110011110001101110000010011000011000010001101000000111001111010110010110111001111001101101000000100010111010011000100111001101101000101000111001000011000001111100001110001000011010000001011000000110011100100011001000010111011010110011101110000000011011001010001110011000101000100001000011
101100001111101110100110011111101000011110110100100100101110011110111100110101000000001010001111001011101101010010011011110000001001000011100111000101100101000010011100111111110001010110001001100001001100010100010010011010000100110010110111101001111111110010110010101111101001010100001101110001101001000010110001001101001000111011111110101011100110110110000111101000010010100111111010100001111011010000100001100000010011001011111100000000010001111000010001000001001010100101000011101010100001110101011110000011000100000011001001100101100000110100000101000011000000011111011101
