000000000000000000000000000000000000000000000000000000000000000000000000000101001000010010100000001100100100010100011011100110000000010000000100100100100000100010010101100101001000110100010011100100101100010100010010000000100011000010000001001000110011001010001011000001011000110110000001
000000010000110000010001001101110011011100010000001101110010011100000100001011011001001100000111101100011011011100101000101100001010000010110010000010000011110000011000000001100110001100110100101101111101100010111111100110111001001000010100000010001001101010000101100101101000111010001010
100100000000101010011101100111101001111110101111100110010000111010000001000101101000111010001101001011001010010010000011010011101001110100001110101001100000110100011110001010101000101100101010100111000010001110010000100111101000110010001010100100000010100010001110100000011011000000101001
101011001010010110101100100101111011011000001000000010011000010100000001100100101001111110100010100100100001010110100011000001001000001010010101000011000001110000100111101000100001011010000111101010000011001000100010001000100010011000010000000111101000000010110001000010000000110110101011
001000110011000000010000100110111010110110100011000111000000001100101011000111000001101110010001010101011101111010011001000110101011101100001001000101011010110000011100100011000010001000110110100101001001111010010010000100100001001110001001100100111101010010011110001000111010100110110101
100110001000100110001111000010111010000011011011101111000001110000000011001010000010011010000110101111001000001010101111101010001000101010100110001000110011011110001000101100011010011000000000100111011000111100101101101000111000000100110110000100100000101110000000100001111000110100101001
101100101100101010101000000100011001011100001111000000101010010010001010101100011010010010000110100010011000111010010011001010000000010100111001110010010000111100010101010000101001101000011101000100101010110110000010000000001010010010000010001110110011001010001001100001100011000110011101
101100010001001100000001100001110101011000100011100001110011100110111111000001001010001010001001010010111110011000110011001110111010111000010011000101100000100010010010100000111001101001101000100001011110001000110001100101010001100100110001100100111010001110111011100110101000110100001001
000101100110001010101001101111010110100010001110101001010001100100100101100000000010001110010011000111100010001000100101001010110000000010000110001011100100100001001110000111101000001110100010000000010001110000100000101000100000000110010000101000101010110110000100100000001011100111000000
100101010000011010110010000101111010100011000011000100111001000010010000101001011010110110101101000111001000000110101001100000100011111010000010001111010110011010010100100010100000101000010100000010001000101000010001101000101011011010001000001100110010001100001010000010000000101010101110
101100101001001000101010110000001011011000100011100001110100011110000100100111111011001100111111000100100010100100000100000100100010010000101001001101000000010010100100100010001000001110011100001001010000101110100010000001001000000110100011001000000011111010000100000010100001100010010011
101010001010101110100101000000101001110100110000101000111000111100011100100001101001000000101111001011010100000111000101001100101001001110110101000010010011010110100011100100110000011110011101100111111000101110101110101101011010100000100101000001111011011110000110101001111001010110000110
100111111000100001011011100100111010010110011100001000110000000110101100100010100001010110100011100111011011000110111011000110100100010100001111001001101000110000010000010000111100011010010010001010000000010110100100000100111100010111010010100100010010101110001010000110000001001010000100
001101000001110110000100100100011101101010011001001010111000110000010000101000110011011000000110000010001010000000101011101000101011100010010101100010110001110010111100100100111001000111000010000000011001010100101110100001011001001010001101101010111010011110101010000000111000101100000111
101011110001110010010011110010001000010001011100000000011010110100001001000011111001110100110000101100000001100100101101001000110011011110000111101000101010110110010110001010001010110110000100001001011000011010001000100001011100001100001100000011010010110000011110100110111000001101010100
000010101010000110001100100000101010110010110001000001010000101110011110101010000001100100001101101100011000101000101111101001010001010010000110000000011010111110010010100111101100010100111010000001110010111110001110100110101010101110000111001111010001100001000010000001000001010110111011
101001101001100010111011001000100000110110100101001101100000101010100001101011011010110010110110001001101010110000011011000111110100100010011010001000100011111000101000100011100000111100010110101010101001011000001100010001001001100100100011000110101001000000101110100000101010101100001000
