0000101011000000100110000101100010001111100100110000000000000000000000000000000000000000000000000000000000000000000000000000000000001110010100110000111010101110100010101001100000000000000000000000000000000000000000000000000000000000000000000000000000000000100101101001011000011000101111000010001010100110000000000000000000000000000000000000000000000000000000000000000000000000000000000010010000110111100100001001111010011011100101110000000000000000000000000000000000000000000000000000000000000000000000000000000000111101000101000010000001000010100010101110010000000000000000000000000000000000000000000000000000000000000000000000000000000000001110001110101100011001111111101010001001100111000000000000000000000000000000000000000000000000000000000000000000000000000000000001110001010110100110011110001110010011000111000000000000000000000000000000000000000000000000000000000000000000000000000000000010001011000100101001100101010111101010000011110000000000000000000000000000000000000000000000000000000000000000000000000000000000
1101110010000010110110110110010100101001010100010000000000000000000000000000000000000000000000000000000000000000000000000000000010010010101001001000001110100111001010100111111100000000000000000000000000000000000000000000000000000000000000000000000000000000000000010010000100100111010011111010111100101100000000000000000000000000000000000000000000000000000000000000000000000000000000000001011000011011000011110100101000011110000011010000000000000000000000000000000000000000000000000000000000000000000000000000000000011011101010010001110100011001100110000011111000000000000000000000000000000000000000000000000000000000000000000000000000000000001100000101110000011110100111001000000000001000000000000000000000000000000000000000000000000000000000000000000000000000000000001100101000001010000011100110000011011110001000110000000000000000000000000000000000000000000000000000000000000000000000000000000010000111000101111000110101111100001010000111111100000000000000000000000000000000000000000000000000000000000000000000000000000000
0000100110010010000110010010000110000100101011110000000000000000000000000000000000000000000000000000000000000000000000000000000000001001100101111010100100100001000101010101101000000000000000000000000000000000000000000000000000000000000000000000000000000000100110000101111110100110011110111000001111101011000000000000000000000000000000000000000000000000000000000000000000000000000000001010000111001110001101011110110100010101111010110000000000000000000000000000000000000000000000000000000000000000000000000000000000000101011111001001001001010011100010101100111000000000000000000000000000000000000000000000000000000000000000000000000000000000001111011101110000000101000111011001011110001111000000000000000000000000000000000000000000000000000000000000000000000000000000000101010111100100001111000001000100010011110111100000000000000000000000000000000000000000000000000000000000000000000000000000000010000000110000111010001111000001000000001000001100000000000000000000000000000000000000000000000000000000000000000000000000000000
0000100110101101001011001001101110000100000001000000000000000000000000000000000000000000000000000000000000000000000000000000000010110001001011101000111000110101101000111000101100000000000000000000000000000000000000000000000000000000000000000000000000000000100010001010111100011001010011010010010010010011000000000000000000000000000000000000000000000000000000000000000000000000000000000001111011000111100110110011001000011001001101100000000000000000000000000000000000000000000000000000000000000000000000000000000010011011101001010000010100110111100110100000111000000000000000000000000000000000000000000000000000000000000000000000000000000000000001000101111110011011100111111001100011011001000000000000000000000000000000000000000000000000000000000000000000000000000000001001011000100100001011111110111000000110000101000000000000000000000000000000000000000000000000000000000000000000000000000000000000011111110000001000011111100111001010100100000000000000000000000000000000000000000000000000000000000000000000000000000000000000
1001100001000110100001110010010010100011101110101000100110001000100101101001010100001100110111000010001001001100100101110000110100001111011001100000111111110011100111101011000010001100010110110001110000000100100000100001111100010110101000000000101011100111000100101000000000000110110101001000100000101100000011110111010100001111100100000100000111110001000001001010001010010001101011111001010001111111100100111100101000101010101100100000110101111111000001010101000000011100101111100010101011101101000110101000111000000101111011111000100111111110100010110111111010001100000110010000111111010100000101010101111000100011101011011000000100000110000000101110001100010101110101110000001011110000100100000010000000010100001100110100000001110011000100110101000010010010010101101001000110001000000100000011010100010010111001011001001100010000100001110100110110000001011001101000010110100011100101100010110000001010101111111000101000101011001001011001010000010000111010011000111110100000000100010111111110001110100100101001010101111110
0001100011111111000011010011001100000110001000010001111011100011100011001111100100001011101000011010111111101010000010100010011110000011000011000010001001010100100100111010100010001111011001110000001011011010100010011101111110010100000101101000101110010111001011100010111100011100010100001000010110100000000001100110110100000110001010010000110110100000100100011010100110001001011100001001000010100101001001110011000100000111000110111000010010010000000100011001100100001001011111000010011011000111100011101001111100001010010100010001100110000100000100110011000110001001001001010000001001001011100100111000000100010010110100001000010101101000000011000111010100011101010101001001011100001110100011110011111010101000001010110001000010000011000111001100011000001101110010111000111111110011100100000010010110000000101111110001100010100110000011010000101000100010100110110011111001111000000000100011110000001001010111101000110011101110100001110001110100000100010101100001000001110000000000011001101010111000100010010000010101000100
0001011000001100000000010001101110010011100101001000110101100011101000110000110000101101001011011000110100111110101000001110001110000100001100110000110000111110100101001001011110100110111100011001001101001100001001011010010110101011000010111010000100010100000011000001000110001110100010000001000001000010000001110001110100000000001010100100001100101000100000000100001110000110001011100000110010010110000001001111111010001110101110100001001010100100000011011000101110001010100110010001000100000100100001001100111100011000010011000001010001110000100010001111111000111001100010000000101100011101001101011100110100000100111110001000111011001011001001100100111100010001010001110000110001110111000011110100000110000110101100100010100001010100000101111111001110000100010011110000000000011011000001101000001000001011010100101000101111011100000001101000110000000010110010110011101001000010100100100110100000001110010110000000111101011101100101111001010010101100001000110000101101110000000000001100000110000110010001011001000011011010
0001010111111110000000001111001110100101110000011000101010111011100001110001000100100100000001011000101001010111100100110010100110001111011010001000001110010101100111110100011100000110011101010000001110101010000010011010110010000111011100000000011101100111100000100100010110011100111000001010000011001011000011100101001000001010001100100001001110101010100001010100010000001100110101000001010011100001100001101110110110110100110001111000010101110001100000110101100000000100001100001010111100011111000011100111100000010010011111110001000110001000100111000000111010010111110110100000010100000100000011011001110010011000010001000001011011111011100010000110001010001100110101111010100010010110100111011100110110010001001100110001000101111001000010000000110110100000110110010001011011000110100000011110110000000000101001101001011110001100000011000101011110010010101100011001010000010101001101011101010110001000100111100001111111101010100010001011111110001001011100101000110000001011100001111101011000001010000101110000100111001000
1000000011000100000100011010011110000010111101111000011100001101000001101111010010010001000111001000101011010100000001111101100100010100100110001001010110101101000011011111110110101101001110110000100111000011100110011000000000011001100101110000101011010010100111101010001010000101100000000010011111100111001000001011110110101011010000011100111111101111001001011011010100011101010000110000101110101011000110110001001100110010110111000000100100000101100011110101111110010001100000101001011011011110000110100001010110001000111000100000110110100011000110101001011110000111010110000001001011001010001010011110101100100100000001101010011000101101100000011010000010001011000100101000010111000000000100000111001110011000001101000001110100011110000000101001011010001100101010001000101011111111000000100110011100101100011100100000110101011110100111101000101010110001010010011001011010000010001000011000001100000110111101010000100001100000101110110101001100001110110111011001110100111101100100110100110010001010110011010001111010111000
0010010010101011100110110010000010011011011110101000110101111110000000010100010000000001011110101010100000111000000001000001011010001011000011001000100000110110100011011011001000001111100111000001100011011000100110011010000110010111110110101000011111001001100011110000101100100000010100111001101010111101100100111110101010010010000100011000101011100000100000001100101100011011011110001000001111010001100010000010110010101000110101110000001001000010100111001010111010001011001000101000011011000111100010111011100110010100000010110010110101100011000011010011010010000110000101111001011000000101100001011110011110100001100100110000111110110011000100010111001000001011001111110000100111000000100001100010010100001000101001111000111101100101101011101111010000010001101010110000010110011111100011001110110010010100001000001000001101111010100010110111110000010011001010100000110000000100000000010110010110000101100110000000000100111001000101000011010000000001001010010000001100011110100010001110100000100000110100110000010101001001
1000000100000000100001010001000100001000011111101000110001010100000000100010100000100110010010000000010100101011000001110000100100101110000100100010101001101010100101111100001101001000110010111000011111111001000011010010110100000111111100001001110100001010000101011010111100011000001111100001001111010000100010101010111010000111000100111010100110100000101100111111010100001101010111001000110000000000000100001111110000000011111101111001101101100110100011000000000010001110011110000000111000000100100001110000101010000111000110100001111101001010100000001011010100010011000101001001000000000001000001111110100000010000000101011000010111000011000011010000110110000011000001111001011100011101000001111011101100000100100011101000011010101001101010010001000010000010111000000000011000001011000110111000000110001111000110111001011110111101100011111110111110010111000100110000000111010110000011100001110010000001000000111000000111111100100101001100110000010110011011000000011101100001000010010011001100010100010010001000010010011100
1000000111000000000110010101111000111100110101010010010110001000100010101100101010000110110100110001000111011110100111010111001000110100100010010000100011110000000110101011111110010101101110000010101000110101000101011111101000001101111010100010010011010010000001111011111010000101001110110010101011110011000001101101100110100011010001001000101000100010100111101001010110010001111010010001000110100000100011100001110100110101010110101000011010111100000100001010010010001100001100010010101010101010100011001000101100010001101000000000010001000111100101011110101110001111010011010000011010001100100110001010010010011011100001000000000110000110100011000001010000101110001011010001101001011001101000100000011100010100011110110001001111100000000000101110100100010110000010100000011001110001100010100111111101000011101000010000110100000100100111001011000010010101010110001001001011000011100010010110101110100000110101111001000000101111001001000011010100000010000101100000000100100010100100101011010000000000011001101000011000000010
1000001101011010000011011111000100000000101000111000110011101101100100011010101010000010010010101000000011111001000111100100100000000011100111000000110110111100000111011010011010000100000011100001000001110110000000110100101100101100000100001010110110110101000010001010001010001010010110100000111000011000100001110010000000001011010110101001001001110000000111110000010010000001010111100000101100111110000001100000010100010000100011110100111010001000101111110100011010010000101101111001101010100011000010100101111100000000110101000000111111000011000011110001010010010011001001100010100000010000100100100000100000000010110110110001100111101010100111011111110000001101010001111001010100001100000010100011001000010110000010101011110101000101000010000010000000100011100011010000110011001010000110011010100010000001001010010000111010001100101000001010011000010111101001001000000000001001100101100010010010011000001001111001001100001011100111110111111000011001111010100000100010011000101011111010101010001000110111110001001010101010
0010110011010010100010101100110010101111100000100000001001011111101101001010100000010110101110011010010000111001000100011010000000000011100011111000000010001000100010010000100110000011001010010000110111101110000001101101111010010100011100110000001010010110000111010110011000001101101001111001100111010100000001001110001010001010100010100000100111001000101111011010011100001101111001010001101001000101001001010010001110001010011100001000010011110101100001100110111100010011110110110000100011101011100000101100111100101101010111110001000011000110100111100110010000001011101100110001000101100111000000000001100000101010111010001000000101110011101111001100110100010010001010000000010110110101000101001011001010001110101110001000001101110011100001001001011010001000100110101011001011010001100011010010111010011110000000101000010101101111100011000100111000001010110110011100010111011000100110111111100010001111101011010000001110110000000000001000111110001100000010100000111011000001000101101000100000011000001111000000101011011011
1000010000110000100001100000010010010001011110111000001000001100000010100011100010100111001110000100100010000001100000011001010100000010101100000000001010110100100001010000000110010000101001111001000110011010100011110101101010001001110110110000010110101100000000010100011110001010010011110000011000001000000011011010010000000100000101010010100011001010000001111001100110001011111011110001011110100100000010111000001010010011101111111010010111010111100101011111001100001101001000100000010101001111100000100110111010001010111000000001001111010010000000110000010110001001011100010000110000100011000011110110101100011100000100001001101111100100000100000110111010001110111011110001100000101110100100100001100010001101100001010010100001010010100010001100001100000000011000000010000001011001100000111101101010000001110110011000111111110100000001001111001000010001101001010000011010110011000001100000111000010011001001000000101101110101000100011100000110000001011101111001000011111100000010010010010000000000110000000001001010101110
0011000101000100001000011001111100000111101011001001011010100001100000010110101110000110010010110001101100001110000101101111000100000011101001010000001110010001100010001000100110001010011101001000010010100010000100101111101110010100111111110000110000111000000101010111011100000000100011010010100111000101000110010011001000000000100101011000001010001111100011101111000110010100100010100000101110010110100000100011101110110110100010111001111000000111000100000010001100010110000011000010111000110010100010101101011100000011001101101001100100010010001100100000110000010000010010010000111000111111100010101111110100000111010110110010100100001011100010000101100110000001000110000000010001110000001001111110011110000110110000000000001010000010100011101001101010001110100110000000110101000010001001010011001010001111011111000000000010010110001000100010110010000011100111011000110101110011101000010010100100011101011101001001101001000001000111110101010100011010001111101000100010011010100111101110100000000010110100000001111001010101
1001010011010110000001001001010000011010001110111010011011011000101110001111111100110010100101000001001111010010000000110001000000001010110111011000101011111111000011001001111000000101010001001010000011110111100000010010011100000110111010100000010011000111000010101110001100010001111011010000110010011100000000010111001000000101100101111010011010011100100010000011100010001010100011101000100110001000100001110101111110000101001011110000101101101011100001000111001010011000011101100000010000010101100110101001100110000110001101011000100110011001100011111111011100010101001001010001101101001001101010001101111000001110000001111001100100001001000001100011101110001010100010000001110010110001100010001010010110011010101110000010101000110010000011100010111100000000111000101000100111110011100001010001101000011110010101011010000110111011100101001001101110000110111110110000110101010000000110110001101010000000110000000000101011000101100101001100101110000110100110101001011101110100100001000000101010010011011011011001111100011111
0110001011101101100010001101000110010111111111001000001100100001100101000111011100110001110111101000111111011001100100110011111010010100100010001001011000000101000011010010111000000011111000100001000011011101000010000111110110100110110111111000101000101110000101100110101000011100111011011010000000110001000000111101101010001100100010011001001010101110101000000111101010000110110100101010011011011110100001001011000010101010010111100000001011000110000000110000011100010001110001001100100010110011000001111011011100001111000010000000110101111000000000100101110100000001110101010000101101110101000001001111100111000001100110111001011101010010100001110100011010110110111000000010010010000011000010100001110100011001010000001000100011001011100010110110010010011001100111111011010000001011000011001101110000000000110111001000010011000100100000110100000000010001110101010010101010001001000001011000100100000011011011011000011110111110101000011001111000001001000011101010000101010011000001011101010010000000001011100010001001111101
0001001011010001100001011000111010010111110001100000010100101000100011110011001110001100011011000101000000000111100001010110011110001011100110011000101011001000100001010011101100010110001100111001001100010101000000000110110100101110111101111001100011100101000000101111001000010011100011101001000111110000000000000000001100000101000001100001111111011111100110111001101110010000000111010010010010100100100100001010001010010101000000000000110000011101000100011010110010000101100101010001001110000111000010010101010000000010000001010000110100011001000001001000111100011101111001011000011010011011000111100100000000010111011011110001101011100111000100010010000110001110001101101001010011001111100101100101101100010001111101011010110100101100000100111110100110010100011001010000001111000100000000111011110110000111011000011010000010011000100000011000000100010110011100000001001101010000100111100110011100010100111110101000010111001000100000010101011110101101000101001001000000001100101100100001011100000001001110001000010000011110
1000001000110000001000100000001100110000001001011000000111010100000100110100001100010000001011011010110001110001000101101100100100001111110100000001100010000000100110010010011010010110000011111000111101100000000000110011110000010001110001010000001110000100000001100010011110011010100011011010000101000000000100101000011100001110110111110001100100101100100000101101111010010010101001100001001001111000000011111110100010111011010011110000000011101011100100100010000110000100011010100010011010111001000101001001111100000000101110100010111111101010001011101011111110000101101111000000101011111101100001000001011100011011000110101001010001100111100111011110101100011111100111001000110100111111100111011111001010000011100111000000100111110101100010001001001000010001100010111000100001011011100011101111000010000001101100101001011100010000100000111101111100001110101101111000101000110100100001001010011010001011110100100000101001001000001101100111001110001000001100100000010110011101000111010010011001010010110100101000101111101111
1010010010010011100011100100101110101000101011111000010001011110100111111101010010001111011000010001101101011011000010111000000100000010011101100000110010000000000001110111101100001101000110010010000000011101100110010101010110010111010011001010011100110011000010111010000100000011110001011001010000101010100001110101110000010111111111001000000010010000100011110011011110000101101111110000111100000010100000111101100000100000001110000001001001010011000011100000100110011001001001000001011100001011000010001101000010000001001100011001110010111001000011000001110100011011000001011000110100110100101001000101001110110110100101100000101000010011100100001110001010001010011110001001111011100001000101111100000100000010101000010001001001100010100000100111101010100010011000010001100111010101100010001011011110010010001110110000001010001110101000110010001010011110101101011001000100101001101001010011011110100000001111110000101000010110100000111110001110000000011110100000110001100101000001101010010010100101111001100001000110110100
0000011110010000000000001011101010001011110001000000101010110001100000110000001100000011010001110001100100101000100000110001101010000100011100101001101000011100100101011000000000001000110010101000011000010100001000011000001010000001001111000000101101110000100011011011111100011110111100000000111100010001000010010011110110010010100100100001011010110010100010110011011000011010000111011000111001100100100011011111111010001111101101001000010110000110100001010111101100010110001101010000001100000000010010000001101100011011001100011000000100100000100111010001000010010110101110000000000011110000100010101001010100000101001011000001010110011111001010111011000010000110001010001000010011000001000110000011000010001110110101011001010011101110001010001011111010100001100111001001011110101110000011000010110100001000110101010000100101100100000011111111001110001110010000010000110010010001100100100100100010011001010100000001101110000110000001110011110100000010100100110010100100011001000101011001100000100110101000001010100011011110
1010010111011011000001100000011000110101100010010000110110011100100000001011010110100101110000011000111111100010000000010110001010011000101001001001011111011111000011101111101110000100101110101000010111111100000011011000110010010100110100011000110011011000000001101011010010010010010101011001100111100010100000011111001010001011101011101000100001011110100100100111000100000110110011000011110110100110100010000010010100001000111101101001001000100010000100000010001110100011001000001000110010111111000101001011000100000011100111101000011011110101000110010110000100000011010000101001010000101000000011111010100000010001001110011000010110001111000101110111100100000100000111010001010111011001000101011101110010001011100001100000110101000101100101010001101110000001010101000000111010010010100011000011101100101101101010010000010101111111100000001010010110101000001010100001000110010001000010010110011110010111001111100000010001001010100010110100000000101001100100110001100010011000100100100100011000000100101001011000101000001110
1000000011000100000001001110101100010011100010100000111111110000000001111010000000000011101000000000011001001100100010110011110000010010010100111001100010000011000000100110110100010100110111111001100000010101100111110111011010011000000110010000001011100011100101111100011100000101101100100000000101010010101001001010000100111010000100010000111011100110101000000100010100100001100000100010100111001100100000100011000010010110111110110001101100101011100111000011000100101000000001011001010011100100000011101100101010000010010100101000011110000101100101111101011010010111011011100001101110001000101000001110001000000111000101101001001000001001100100101110000010000100100001011001101000111110100010001010100000011101000011000000111111110111000011111111100100001001010110101000000000011000100000000001111000000011111110111000110000011010100111001101011000110100101010011010001001000101000000011111100010111101101101001000010111000100101001011011010000010011010101000001010100110101100001011111110010010101010010110001011001100101
0001010110000111000100110111110010011000000100001000010101101010100110100110011000010000110001010000000010000010000010000011011100010001000101100010000011011111000010111001010100100001110000011000010001110101100010001100011010010100110101111000110100110011100001001000110010001100010001001000010011001001100001010001011000000100010000011001001011111010001101101100001000010011111000111000101011010001101011101000100100010110010001101010011010011011100111011111101110001011101010100001000111111111000001101000100110010101011100111000011110101111000010111011100010100011101100100000001011110001101001000100001010110011010001101000101110010101000100111001010010100110000101100000000100011001001000000000001000001000010111111001100011001101101011100110111100000000000100011000101011101101101110100001011100011010110000010001101000111010000011011011110100001000111000110000001000001111100100101001001000001100010111100000010100000001000100001111110000101101110011010001000100110100100110100010001010000111000100111001010100110001
0000001101110101000011100010111010000000000110111001001101011000000000000000000110011100111100010010100111100000100010111000000110010000000010110000111011010100000010000111011010101001101010000000101111010011000100000001001100000011011000010001100101001111100101101101000100011010000100011000001011010110101000001101010010001100110100110000100000010011100010100110100010011100100010101000111101100001100001111010110100000010000011100010000010100110100010001010000010000001100101110001010111010101100010001011110010000001010111110000111001100111000101110010101110100000000001110000111000001010000001011001111110011101100000101010111100101010100001100100010000000011100011111000011010101010100000011111101010001110110010111000011010100100100000101011101000000100011001100000001001000110000100000011101100010101111010010000101001111111000010100001100010001111000101010000000110010010000000111011011000000101111010010000000011101001000110011010110100100110111010110000010101110011101100111001101110000011100111011100000110010010
0000000001111111000010101110011100010001010000100000000110101100100000011000111100000100001101100000100011110101100100101110110100010110001000011000100001110110000111000001010110001110111011001001000110001001101101100000000000011000010111100010100100110000100010110100110010001101100110001001111000100001000010110001100000000110110011100001100001000000000010101001100010001101101101110000001111110000000100111110111110001111011000100000011011101110000101011011101000001101100101110000110100010110000111001101000011000011100011010001011000100101100000111100000000000100010000101010010101100100100010101000010110000100011100110000000111011011100000111110101100001101001101101001001001001111100001000110011110001100001110010000101110000101000100011111110100000010011010000000001100001111001000110111010000000010100100001000101100100101000100001000101000011111011001010001100111110000100001110111011110011111010110001000011000111101101010010111001010000010111010111010100011100000100111111110011000010000100010001001110100000100
0001000001110111000101010100001010011011101010000001011011001101100011110011110000100111100000101001000011011010110010000000011000000010011000010000001011100011100110100111001110000101100010011010110001000110000100101000010010001011110001100000111110111101100011010000000100001011011111001001111011110100001010000100101110000111001110101000110000101011000010101111010100000111010011010001000000100110000000110111100010100010101101111000100110001001001101100000010110010100110011010001000011000101100101111011100000011000001101110001011001010111100100000111111110001110001111101001101100101001100111011011110100101010001111100000110010110110000111101011000100010011011011010000101000100110101000111100100010010010110111111000011111110100101000100100110110001110101010100000010000010110000010101111100010001111110010010001011110111101100100000010010000010010001100011000011011100010100101001001011100010101011101010000100111000001100010001000010100001100110010111001001000001010000000011011110100000111100000111000011111010000
1000000011011101100010111011011000011100010010010001000110101100000001010001101000000100011010101000010111001110000101110110100000001100100100011001001011001110000110110111100010000000000010011001011001000001100100011100101100111001100101010000011101111111100111111010111000011000000111100001111110100011000110111110000100011001011101110001000011111100100001101001011100101000111010101000110100001100000011000101101010011100010111010001111100011010000110000111101110100001011011101001110110000110000010011000111010010110010000110000010101010101100000111101100110000000000111000000100110110011001010010010010010110001010001011000011000110010100100111111100110010001010010110000111011010100100101001110101000000100011111011000011011011011000011011101001110001000000000001001011101001001101010011010010010010101100110101011010011001100100001001100110100000110111001011000000011010011100000100001010010101010101101101010011010111111000110101011000110011100001100000000000111001100000100100101011110010101010001110000010101101001
0000101101001000001010111101101010100010011101001001110011110111000000011010100110010011111010101000111000101100100010111111101010100101111111011000010100100010100111000100001110010111000011110000101100000000000001111111000110101001111001101000111100010011001001001000111100000011001001111000010110001100100110101110000010100010010100010001101100111010100000001111010110000001111111101001101110010010000001000111111010001111101100110000100111010010000000101010111100100011000100111000010000000000100010011010110000000001001111111000111010100101000001101101100000010000000010100000001000110011000001010110111010011010101111001000010001110011000100100000011010010101001101101010000111000100100001010101111110001110111000011001100100101111100101000000001100001110110011000001110110111101100011010101110000100100001110010000011000111111000101010111110110001000001110100000000011001110000010110101011010001111110010101000000110111110100011001010110100000111000111000001010001101001100000101001110110000101010011100001001000010100
1010110110110111100110000110010110100000011000111011110101001000001001110010100110010111111011100000100101000111000000011000001110000001110010101001000110011111000001100111111100010110000000000000011011010111101001110110101100011111010000100001010111011010101000000001100010011010010110011001101101111001000101100111010100000001000111100000011110000010101000000110001010010101000101000000000111110010100110001011101010000000110111011010100001001000000000100110001010000000110111111000001110101000000010111011000000000010011100010000111110110111000001111111010000010010011001001010100001000111000000011101000100001000100111101000011101011100100010001000100010010011111101110000101100110001000000000001100100001010011011011010101100011101100110110011011000001111100010101000010110101101100101011100101100000010011111111010000000000011000011100101110000000100000111000000100000001000001000111111110110100000110111000000000111011101000011101101011010011110001110001001101011000010100111000011010010101000110110101000011101010101
0000100011101101000010000111101000000001111101111001000101000011000001101010011000110101111010011001010000101011000110100000010100001100101100011000110100001110000011001011110110000001000101000010100100100001000101001110100100010000110100000001100001111111000100001000101000010101111111010000011000001101100000001010101110010001111010100010000110101010100000010000000110100010010100101001011101010001100100110000011010010000001010111000110101011111100000001010000010000101011011011000001110110110100100101010110100100100111001011000001011001010100011000011000100000111010100000001111010001010000101111000101000000011001101111001110100001010101101100111100110001100100000111001011011111111000010100010101110011010100110110000010010011110100100011011110110000100010010111001000111110001100110001100011010000001010111010000100000000000000100010000100010000000001011101000101011001011000000001000111000001000100000011001000001000010100001010110100000000100101010110010011010111010101110011110101010001100011110100001000000101011
0001100001010001000000100001100100001111100110000001101101100000000001010101101000100011011101101001110010101011100100011111101010010001111010110001110100110101000100001101001000000001010000100001111110010001000011000001011100000011110110001001101000111110000100100001001000011101111110011000100111101110100011000111110010000010001110001000100101101110100110001101110010000100000110100001010110101110101011001011110010000100001100001000000001110001000000010111100010010001001011111000011011111010000111000001001100000101101111101000110111001110000101100000000010001110001101101001001000011000000101101000110010000001100011101000011011001110100101100110010100001001011100100000111000001110000010011011000110010000000100100000001001111101000101001000110010000010101111101011001001110110000101010111010100001100111100101001000111110010101001001111011100100000110101000000110100000001000111100010001110010100001100000000000110000111001011010000111100100110010000111000001000101000000000011111000100000101100111000000001111100100
0000010001011011000111010000111000010100000111001000101011101100000001010000101100000001001011000001011101010100000000011010110100010110000011101000100101000011000010100110010100000100010101001000111000100011100111010100010000000011100111100001011010111000100010111000101000111010100110100010010000101001000010010010010110001111110010110000011001100000100001001110100110101001100011111000110100001101001010000010011110001111000101011000000110101001000001101111000010100011000100000000101111100101100011001000101100000100101010001000010000101100100100111110101110100110111110011001010011010001101001101111110110100100000111000001010011001011001010101001111010010101011000110010101110111101100110000010101000010001101010001000110011001001001001011110111110000101001001011001000100100101000100000101101110000101001011111000111010101010000001101011100000000000010010001000010011100111100000111001011100001010000011010010001011101100000000000000110010101110110111110001101000000000000000011100111010100100110000101000011011000001
0000110000011100100110100101110110010000100000010000111011000011000011011001100110100010011110011010010001111001100110011101000000010011101101011000110101001100000001001001011000000110010101011001111111101001000100110001010010000111011111001000111111011111000001101010110110010010110101000001010111000000000000001110011110011100000011100000101001110011000010000101100110000000001001000000001011100001100011011011101110001001111001010000111111011110000100110011001110001111011110011001100010000010100001010100011100001100001010101000010100111001000010011011010110001000011011000010000010110010000011100110110110100001110110001010011000101011100111010101011110010110001011001000011010101001001100100111101000011011010110011001101011110010100111111100110000000010101100100001100001010111100100100010100110000011111110000000101001011100000000100000011110000110000110101001000110001000000100010100000100011110100110100000001001000100000100001000110010010100101101110000011110010011100011100110001100000011110110101001100000001010
0000100011001001101000001011100010011000011000000000101000011101100101000101010110010011101001111000001001100100000101101010000010010001001011011001000111000110100011011100100010010100100000100001000100001110101010111101110110011000010000110000000010100111101001000111010110010011100000011000000111100101100111000110000100000100010110011000011000000011100011010000110010011010010010100001000110101000000000110111011000101001101101100010001101110001100110111100100100000011101001110000101101100011101000110100000000101110101001000010000011000010100011110010101000010011101010000001011111110111000101111000111110000111010001010010010111101101100110010100101100000110110010110000010110111011100110011100001110100000010000111000001100101001100001011011100000001110001011010000011011101001100110011101100110001001100001100001111111001110010000110000010100000110010000101000010110000101100000101000011010100001000010011000110101011000000001111000101100000001010111010001110111110010101000001001101000010101111010100000011111001111
1001000000111101000100010111001110010001100111010001001110011010100101001101110110001011101000010011010111001110100000111011011000100000111101101000010110000101100010100110001110001101100001011010101110000100100100011011101011000100000111010000011000010001000111000111000110110001011101110001001000110001100100110010100000010001011110001010000110101100000000001000010000000011011111110000100001000011100101110110001000011111100000101001001100101010100011000001000010001100110010011010001111101111101000101110000110010000111110101000111110101100000010010000001100110000001110101000100101011110100100101101011100011010001000011000110000111100100011000011100010001101101101011001000101000001100010010101010000011011101101001000011101010010101011111100100010000000001111101001011001100100100000010110011000000011001100101000010101110111100101001010011010001110100101010010000100010010101000000101101110000010101100000000000111001110000100111101111110010110010011100000011101100010101000001010100011001011010101001000011000001010
0000110110111010100010000011101000011101111001100000011011100001000001100100111010111000100000100001001010010110100001101111000100000101110111011000001010011100100110011000100010001111111011000001011100100001101001011011000010000011001000010000000011010011100000111100011110010010011010001000000110111011101111010101010100101100011001100000000000100000100110010010111110000001010110111000010110101001100001101110010110000100100010111001101011001000000111101111100000100111111011110000100100010000100100010101101101000110010011011001000011100001100010001011011100001001001010100001011011101001100101111000101110011100010100100000000100011110000011100100100000101011100100110001101101110110000000010111000010000010010110101000000011100000100100001010001110001111011010011000101000110010000000011100110100011010101100101001010100001001100010010011110000000100101011110000110000000000000000111111110110101100100110110000000011110000000011010101010010001101100101000000000001001000000101110110010000000000000011001000010011100000
0000011000110000000000011011000000000010110111010001010100101100000110111111100100001100011001000001010000011111000010001110100000100001010110101000001110111000100101001111010010011111111110001001100111000001100010011110110010011100111000111000110110101000101111000010111000000100110100110000111001001011100001001010101010001101100110000000000111010111000101010010011010100100000101100011000111110001101011011001001010001100010110011010101111010001100011000011101010010101011111111000011011000010000110010011011110010000100110101001000010100110000010000000010100001010110011000010010101101010101000101000000100000011111000110000111001001100000110110101000100000101111000000010010101100100100011000100110000010000000010010000110111100001101010001111110110000100110011000001011000010010000011001001000110000010100101001001110010100111100100001010011010000010011100110001011101110011100010101011000010010111001010100000001001011101000001110000101100011011000011010010010110110110100110010111111110001110100011110001010010011010
0100010001010111000110011011001110100100011011010000100100000101100100010111111010011010100000001001001111101101100001101101110010010000111001011000001110000001100010111010011110001010010110001000001011000010000101110000010100011001011100000001110000110100101011101011000110001010010110111000000100000111000101010000100000000010100010111000110110100101000011000110010010000101011011110001011110110100000100101100101110001001100000110010000010100001100100010101011010001000001110010010100000110001000001100101101000001101111010010000010110010001101000111110001110001000011110010100000101111001100001110001111010000100110101110000000111101100000001011111010000000100111010001001110001111101001101000111000010011001001111101000110100000001100011000001010000000111100110011000100100010000100001100110000010011101000011100001010111101001000101011000101010000001111000001011111000100000001001000101001000010011111101001001001000010101100111001000000000001011001100111001100000010001100000001010111100000001100111011000011011101101
1000000011000101100101011010110000001101101100100000011111000100100101010111001010001001001001100000101000110000100011001010011110011010001011001000001001000101000010011110000100110001000000100001111000000110100110100001010000000110000100001010010000111010100100100100110000010010101101000010001001000101000100111001010010010000100111010001101011100111000010000010111110010011111000111010000111100010100010011010111000001011100001011000001011000001000001101101110000001100000101111010011011101001001001011101011010101100010001101000000010100101100110111011001110001101101010101000010000000011000101111011100100010010011111001001000001000000100000010111111110100001011010100001100101111100100010101010000110010010001101010000111101010111100011011010111010000101000110111001110010001001100000110010111010000101010000101000011000010010000000011110011000100011110001101000111101100010000010001111110100001110010110010001101111100101100010001011101010010101101011000000111001111101100100101000010100011001100110101001101000111000
1001000011000010001110111011001000000111000010111000110011100100100001100011010000001011100110110000000101110101000100001110100100011100001001011000011110100110100110011001001000111001100111101010110001111111100010101010100110000111000100101001101011011000100011000001111110001000110111100001001110010011100111100101111100011110011011111001100001000001100001100111000010000110001111011000001011101110100010111110011000000101101100101000111101101101000101001101010110001110110101111011001110111100100111001100111100001011110011101000101011010111100001010110110100011011110100100010001110001111100010010010110100010001000011111000001101110011101011101111111010010010010010101001100110101000100111010111010010011111101110011000100100010011100011011011110000000011110110110000011111011110101001101000011100010001000100101000001010101101000011001000101000001101000111001000001011011100000101011110000110001010101010110000011000100010000110100000101000001100001010000000011101011110100000010110100110010000011101001001110000011011
1001011011000100000010111010101010000010001011011000111101000111100110011001111010010010101011001001010001010111100000011101110100011010111001011010000011101101100000010010000100010011101100000000010001001001100000001101100000010101000010011000000011111000000101001010100010010110010000111010000100001010000001000101010110011100100010101001010010011111001000110000111100010010011011000000000010000111100010010001111100000010010111000000011001111100000010001010011110100001010001000000100111100111000000001110001010001101101001100000000010110111001011001001000010001011111000101000100011011110000110110111101100011100111111010001000000000100000100000011010010010100000111100000101110100001100010000100010010000011011011000000110001001111000010001101110110001100000001001000100100101111100011111100000110011110000011110000011100010110000100000011101010100111111000101011111011101101100100010000000110010100100000000000001001010110100001111000101000000000001000101001101110110010101000001100010110110001010010100001000111000000
0001011000010110000010111110111100010100111000111000111000100111100110110010000110001100101001101001010100011010000011010001101100010010100110101000011111110101000001111011111100011111001101010001110000010100001001101011011110001111010000100001010110110101101011101101101100001010010110011001111101111110000010011000100000011111011010100001100110001000000100011100111110011110101011001000100011011111000101011011100000001100000000010010111101101010000001111111110100011111000001111001010100010010000000101001001100001100101100111001101111100000100100101010000100001111010101100000010000100000000101010111011110000001001000110011111110001100100011001100111100010111000110001001000110111001000001001011100110011001111111011001010100010100100000010001111000001010010010000001101111111110000010000011110110100110100011110001000101110111100010011111000100001101101100110000010000001001000010001001100000000110001011000000010011000001100001010110000010001111000110110000101010000110100011001000111010001010010001011000010101000011
0001100000010100100001010111110010001100001100111001101111000111000010110001011100001001001101100001010100111100100101110010010100011110101111001001110111000011000001001011000010000011010100100001000110100000000000101111101000001010001000101000011111000100100011110001110100011010001101011000010001010100100010010011100110100010100110111000011100001110100100011101101100000110001111110001011000000100100100111110001100001010001000101000001100110100000011010010110110010101100101011001010010011111100111011000011100000111000110100000110111100011100011010101101110000111010011000010000101010111000111111000110000100000011011010000100101010011100011000000001000001010000111010000001000010100100100000011101010010001001100000010001011001101000001000110010110011100011010000010110111011011100010001111010110001101010000101000110001011111000110110110010010000110110101010001101100101110100011010100010100010111100110001000110100011101100111001101101010010010000011010000000100110111001001100111111110001101010010011010101101001011
1000110001101100100010000010011000011001110000011000011101101100000101011000001010010000110001010001010100001011100101110010100000000011111111110010000100001100100100100000111000011111000100100000111101101111000011101010010000000000110110010000001000111110000011001100111000000111000111111010010111000001000111000101110010001110000011000000010000110000100010010101001110000110100100110011010111011110000000000111110010001110100101011001010100111110001000101100011000000010001110000000000101010000000100000110100000010101001110111001001011001100100111000000001100001100111001100001000011011111100010010000010100000110000101001001000111110101000001100111010000011100000010011001101110001100001001110001000000000001110011101001010111111111100011110110100100001001011000110000011110001110100001010101011000000110101111001000011001110000000001100001100110010001000000111000001010010001100010011011111100000000111101111001111010110110001000011010110000000011000101000001111100010000100010001001100100110101011010110001010001010111
0000101000001010000001110100011010000000011110100000010101001111000011011000001010001110101011000100101011100100000011111101010110011001101110110000010101000111100001001111011000010101111100010001101101001111000010000000100000000110111001001010011010101110000000100100000010000000110011001010000010011001100000110000001100101001001010111000000110010011110010111100111000000001100001101000111100110010100011000110010110101111101000011000011001001001000011100111011100001011101001010010110110010110000000001111100010110010100100110000110110000001000010111000001100100111101001111001001011100001100001010101111010000001010110111000110101000100000101110000111100001010011111011000010100010100100100001010000100001001101001101000111110101000000100101001100100001100010011101000110100001001100110100001011110011111000101010000100010001010100000110010100000010010010000101000101001000010100001010110100110010101001011110000000011000000000111001100000000010110111110101000000001110010000000010000000100010111000111001000110001111001
0001100001001000000000010110000110001100111000000011000110110000000001101100000110000111110011110010010111101000100001010100011000000100010000000000110111101101100101001001101000001111011111101000100011011100100100000111101110100101110010010001100010011000000000001100110010010000001101101011000101100000100100111111011100000100110101110000110011000100000000111010100100010101101010010010110110010110000010111010001100001110010110011001011100000101000100110110011010001111111011111001100000110011100100101101110010010100110010100001001101110110100001011100000100011111101100010010111011010000000110011011111010011000111010001000101111010100010000111011111010000110101101111001101001011110000010000111000010010100110010111001000001111110100010010111001000000101111100011010001100110110000001011111011000101100110110010000010010000011000000100111110100001001110100100010000011000001100000001001101110000011001100000000011100011001100100110010101010000111000011100000001100101101100010000001111010010111111101101000000000100101
0000001101111010100100011100100100010010100010101001110111100010000000010000101110000011101001001000101111110001100000011110000110000010101001101001011101111101100100110101101110101010101010100001011011011001100100111101010100011100010001110001000010110101100111100111101010011010001000100001011011001001101010111101011110000011010100110000001101001001100000100101010000001110101110110010111101000010100011001111101110000101010101001000101101111100101001010011110100011001000111101000001011101111000010111100111000000010100010111001001100011000001001111101110110001111100110100000011001000101100111110010010100010111011100100001100011101110100010001100101010110000111111000000110000110110000000011001001000010010011110010000110001011100100000001010100110010001101110011001000001001100100010110010111100011000000101101000001000100111100010001100110100010110111100011000000111111001000000100010011110001110110110010000011001010100100001111110000100000110101001001000000101100100001000000110110000001101001011011001000011110101
0000000011000100101000010110000010011000011011011001111001111111000100100100010000100000111101101000000100000111000010110110001000001110011110100000100000101110000100101001100100001010111111001000011000101011000011110001010110000011011101111000011011111110000000100011110110001101001101001000110011001010100001111101100100001100011111011010110110101111100110101111101010001001111000011000100100111011000100100111001110000110000000111000110010000110000110100110111010010010111001101000001001111001000100100010100110001100100100010010011110100100100100101111111000000000001110100001010101011001101001000011011110000100111010001000111101110111100010110110000010110001001011100000000110011000100010111000000100010000000101100000100100011000000000010101000000001001100111111010100000111101000110010101011110001100001001101000110001010001100000001110111000000101000010100000001001011100000000011110010100011101000101110011100110110011100010011111110000011111111101000001001110101100100011100111110110011110001000001000110010111010
1000010101000110100101101001001010000100010100001000111011010001011000101100111010001010100010011000011101100101000010101110001100010101001000101010001001011001100110101101011100011010100110000001010111000011100011011011000000011001111110001000100110001101100110001110100110000101100101011001010011001101100101110000010111000001010100011000100101001100001111110010111000011011001111011010001110111000000100000110010110010011000000000001111010000100101000000110110100010100000001011000010000100100100010111010001010111000100011000000000001001000000000100000000110000011001110100000000110011001101000101100011110001101011001111010000101001110100000110010011010001001110101111001110101110001001000001100010110000110111101001000110100110100000010101100110100001111110010001001001001111000000010001000011100010101110111110000001011111001101100110110110000000001011000100000010110111001101000111001100110010011111011001000100001000000100000100110101010010100001000111011010111011101000001001100000000011001000001101000001001010111
0000100011010000000000000111101010100000010101010000101110110110100010110010001100001110111110101000100100100010000110101011111110010001111000110000100100011101101010001001110100001101001001101000100011000101001100011010100110001101101111111000000101100001000001110110011100001110001110001000100000010110000111011010000110001000001100111000001101110000101001000000111000001000001001010001111000011111000010010000001110001000000100011000011110011001100010011110000100000010110111111000101111110001110100000011010000100100011001000001000110011001001010100001101000001110100111001000000101101101100010011111110010000100111001100000100010000011001101100010100010001110001010111000111110111100000000011111010110000010011011000000000001100110000110111001010100011111111110100001000111110110000011100110111000001101100101010010010101001001001001011010000010000111011000100000000110101110000001010110101010000101111011100000011000110101000000100100011000010110100100010000011100000110100111001011011000000010011101111001101101100010
