memory_initialization_radix = 2;
memory_initialization_vector =00000000100100101001111000000000000000000000000000000000000000001011101100011000000001110000000000000000000000000000000000000000101011011000100100100001000000000000000000000000000000000000000010010001110000011011100100000000000000000000000000000000000000001000101000001101000110010000000000000000000000000000000000000000000001001001000100000101000000000000000000000000000000000000000010110010100000010001010000000000000000000000000000000000000000000000011100101101000000100000000000000000000000000000000000000000,
10011101000011001001000100000000000000000000000000000000000000000011010100010000100110010000000000000000000000000000000000000000000001011010111010011000000000000000000000000000000000000000000010101100100010110001101000000000000000000000000000000000000000001010101000000101010000010000000000000000000000000000000000000000000011110000111110100100000000000000000000000000000000000000000000001110100101110010110100000000000000000000000000000000000000000010110010011011100111110000000000000000000000000000000000000000,
10000001100100111001111000000000000000000000000000000000000000001010101100010110100100100000000000000000000000000000000000000000001011111000000110100100000000000000000000000000000000000000000001000001001010101001111000000000000000000000000000000000000000000000010000101011000100110000000000000000000000000000000000000000101001010000100010100010000000000000000000000000000000000000000000000110000110110010100100000000000000000000000000000000000000001001010100111101010111110000000000000000000000000000000000000000,
10000000100100111010010100000000000000000000000000000000000000000000111010110000000110000000000000000000000000000000000000000000100011110011011010011110000000000000000000000000000000000000000000011110001010101010100100000000000000000000000000000000000000000001101100111100001000100000000000000000000000000000000000000000101111111110001110101111000000000000000000000000000000000000000000101101100000000000110000000000000000000000000000000000000000000100111100101001101101110000000000000000000000000000000000000000,
10010001100011100000110110001000100011111000111010010001000000110000100010100110001001010011110000010101100111010000011010000011100000100001000000000110000111101000011000010011100000100001001100100010000001101001100110010011000000010000000110011110100001011000010100011111000010000001011100000100000111001001100100001010000001001010101110010101000101010000111010010010100000100001010100000001001010001000110000000100100011010000010000001101000011010000001100000100100011101001100010001011000000101010011010000010,
00000010000010000000110100000011000000101000010100001101000101010001000000000110000000011000010010010100100011011001000110010101000001100001001110011110000000111000100010010011000000011000011110010001100111011000100110010000001001111000010001011010000001101001000010000110100100100000111010000101000000010001001010001000100101111001000010001001100110001001000000000010000010001000000100011100000001101000110010110001100110001010101110100000000110111001010110011100100011010001010010110011100110001001101110000010,
10000110100010000010010000010001000100011001000010001001101011110000011010001101000010010001100100100101001001101000010110000100000000111000110010101011000111111000010110100001100000001001110100000010100000110000000100000111000110101010010100011011000101000001011100011110000000000001011000000010100010001000011010000011000011100001111010001001100011011000110010001101100000010001111110010010000001101000011110001001000010000000101100000011100101011000111000010011000101110000100000011101000001110001000110001110,
00000110000110100000111110001000100101100001001110000011101011011000010000111001000001010001111110111000100010000000101110010010100001100011000110011110000111011000001100111010000001010100110100011100001000011101101100001100000110011001000100100010100100010001011110110010100111001000001010010010000001011000010110000001000001101001110000011000000000100001011000001101000101111001101000010111000101100000110110110000000010110001010010010010001010010001000010001100000101011000101000001110100101011001001011000110,
00001001110100100000001100010111100101010000001000001110000110001000000110101110100001010001100100010110100001110000010110011000000011000010110000001111100001011001001010001001000100001011010000001011001011111001010100100000000001010000000110001101000001101000001101000011000110111000010100000010100100100001000010010110100100000001100000001111001000110000011010011001100100101001010000001000101001001001001100100110000100000000111000011100100011000000100011000001100110110000100100000100000010100001101100001001,
00001111100000001000111010000111000001100000001110011111000100001000110010010101100011010000011010010111100101100000010100001000000110010001101110001000100011101000111110000010101001011001110110101010000011011000010000001011100111011000101110011011000010100001010010010001000110100001100000101111100000110001000110000111000111100000001010001011000101100001101110001000100001001000110100000011000011101001010110010001101011011000110010101011100111111000110100000101100101101000010000000001100010101000010110010011,
10000101100111000001011110000010000100101000011100001111000110001000110000000111000111111000001110000001100011101010001110000100000001101000010000010111101011100001100000000101100100111001101100001101100110100000011100011110000001010000100000101100100010000000100000000110000010000000110010000010100100111000110100010010000011110001110100000000000101010000110010001001100001110001111000001011100010001000110110001111100001100001000100001101100001000000011100000001100100111000100100011111000011100000011000011011,
10001011000001110001110110001010100010011000010110011100100110110001010010010000000110011000100100011001001010111000100010010001100001100000100110001000000110110000010000101100101000100010111010001010100101101000111110000001100010101010010100011010000110100000101010010100000011010010000000011001100111001001011100000111000000110000100110000100000011111001001100110100100110110000001110011011000101000001011010001111100001110010001000110001100001110000011110000011100010110001100110011101100011010010111000001111,
10000110100010111000001100010001100001001001001000011100101011010001011011010001100010101000010100000001100001100000110000001011100001101001011110000011100101111000100000001010000001111001010110000110000101000000100100010100100100001001001010011001100011100010011010001010000110001010010100010011000000001001011110001000000000110000111100010001100100011000010100010000000111101001001000001000010000101000101110010110100101001001000100000111100010100000111100110010000011101000011110000001100011001001100010001010,
10101010001000010000101110000100000001001000101010111011100011001001001000000100000101110000110000000011100111101001001010010111100010100000000000001111000110001001010100010001101001111000011000010111100011111000010000011101001010010000011100011011100001001000101100000111100110001000110110011101100100101010011000100110000011110000011110100011000011000000010100010001000000010000000010000011001001111001010110101001000001110000010000101001000101111001000110100001000001011010000010011011000111000000110100001001,
10000011000101010000011010001001100011100010000110010101000010100000100000011001000011100001100000000001100110100000110000111101000110111001011000001100000010100001111000011101000100010010111110000111100000110000001110100000100001100000100110001110001100011000100010001100000101000001111100001111000101001010010100001001000011010000110000000011100010000001101010100110000011101000111000010111101101011001001010001010000100010010100110000110100011111000100100100000100011000000000110010111100011000001001010110001,
00000011110000100101000010100011100011101000001010001011100000110010000000001100100101101010101110000110100110011000100010000101000011011010001000110001100101000000101010100100100000011001101000011000000000010001010000000100000111110000111110001101000011110001100000001000000110110001000000010111100001110010100110101100000001010000011110011000001101111000011010000001000100110110000100000111001000100000010110001100001001011001111110000010000110011000101110001000100000100000110110000000000101111010111010000000,
10000100101000001000100000010111000101010000000110001011000101111000011011001000100011010000000000010000000011011000011110000010000001101001100000000000001001001001001000001110000100101010000110001100000111011010111000100110100101111000010100000011100011110001000100011011000010011000011100001010100100001001110100001111000100101100010010010100000101000000100010000010000110100000001000011000100000111010010110100000100001101000001110001101100110001000001000000001101000101000101010010100000011011000011000010011,
10001000100011000001000110001000100101001001101000100100000100101010011000000111100110100000001100010000000100011000011110010110000100110000100110001100000000010001101010001010000101100000101010000110000111101000100110100001110100000001110010000011000011011000001010010011000001010000110000011101100010100001000110010110000010001000110010001000100111001001100100010000000101011010001000001011100000110010110100010000100110001001000010100011100100001000001110010110000001001001101010001000000000100000101010000111,
10000011000010010000111000001000000111101000011000011100001011010001011100000100100011101010000000000100000000110000001000010001000110111010101110010011100001110001011110001010000011011001100000011011000111111011010011001011001000011000010010000001110011101001000100001101101000011000100000000011100000100000000011000000000001100001001110000100100110000000101010001010100010011000111100000100000110001010111110110110001000011000000110000110101010111000011110010011100101010001100100001011100111101001010110001101,
10011000100001100000111100010001100101110001010010111101000000111000010010010000100001010010101000010100000000101001110000000101100011101001100100100100000111011000111100000111100011011001110110010100100111011000001100010101101101100011110110010001001100101000001110011111100110010000100010001010100000011001001010001001100010110000100010010010100011011001011100111011000111100000001000110011100011111000011110000000100111111000111000111010001010000001110010000111000000011001000100100011100001101010011110111001,
10000101100001010010101100011010000010001000011100100001100010110000011010001000000011101000101000001110100000100001000100011001000000011000111010000011000001001000111000001100000010011000101000011000100011100001000100000110100100010000010100000001100110000000011000001100000011010001011010010010000100011010101010000101000011101000101010001001100100011010011000001001100000011000001110010101000000010000111010101000000001100000100100100100000111001000100100000101101000001000111100000011000000111000011110011111,
10001000100011001001011100101000001010010000101000100010000000101000010110000001100001010000010000001010100000010010100010000101000000110000011100010010100010001000100110010100000001101000010010000010100011101001010110011100100100001000110010001010100111101010001010011010101001001000010100100110000000110000001110001100100010101000110110001001000010111000111100001010100011101010101000010000100001111001010110000010000000000001000000000101100000010010111100000110000100111000011000000111000100100010000100101100,
00010010101011000000011110000001100001110000110000000100100101000001101010001011000010100000111110000001000100001001010100001101100111110000100000110010100100111010000010000111000111100000111000010101000001101000111010011011000100100000011100010110000001000000001000011111100001110001100010010110100001000000110100011100001000001000101110010100000001010000001010000010100100101001001000000100000100000001011100100011100110010000001100010110001011010000000100000011000010100001011010011101100101001001010000011011,
00110011101010001010110010011001100101101001000000011001000100100000111010001000101010000011010110000001101000010011011100110000100010101001011100001110101001000000010010000010000100100001000000100010100011000000100000000000001000001010100110100111001000001000001000010111100101110001011110000010100010011001011110000000000010100000010110000011001110010000001110111100000011001010010110001010000011001001001010000011100011111000111110010001101101000001001100010111000001010000010100011101100100100001000010000111,
00010111100110111011010110010110101001110000101110100000100000101001010010101010100000001000010110011100100010110010010100000000100001011000100100011001100011101000010110001010001000001010111010101011000001101000011100001110000000000010001100010010000001100001000000011011100000101000100010000100100000100000001100011011000011011001101110000001100100111000100100001110001000000000101110001000100011101000011100010111100111001001010110000100001111011001010110001001000000011000111010010011100101110000100010010110,
10001001000111110000010110001010100101111000000000110111100011100001010110001011100101001000010110000011000111011000110010011010000101011001001100001110000001110000011000001111000001110000100010011101100000000001010110001011001100111000101100110111000010100000010100001111100111100000100100011001100010010000110010001000100010010000100110001010100111000010110010001101100100001000100010000110000011100001101100000011000011010001000100001111000111110000101000010010000001110001111000001111100000011010000000000001,
10010001000001011001000000010010100001000011000100010101101001011001000010010010000011000001011100011100100011110000110110000000100011010001101000001001000111101001001000010110000000111001110000001101000110001001011110101000100101100001011100001100001011100001111100011010100000100000111110010101101110100000011000101110000111001001001110010000101001111010100100001011000011001000110010000111100100111001000100011110100100000010001110010010100010111000011110100010000101010000101000110001100101100000011110101000,
00001000000001001000010100011101000100010001011010001101000100110000001110000010100001011000010110000111100101000010101000101101100010000001000010000000100010011000001100010011110000010000010110001101100000001000010010000101000000001000011100010110000110001000100000000001000110010001101100011001100100101000101010000110000011110000011110001100001010101000010000011111100000010000101000001100100010001001011110001011000101001000000110000111100011000010001000001110100110100000110100110000100111101000001000001010,
00100111000000111000100110000101000110100000111010011111000101000000001000011110000101011010100010000111100110100000010010011011100011111000110000000110000111011001011100010100001011100001110000010111001011101000110010000011000100101001000000000011000101111001000000010000000100010000100110011010001000101010110000010101000000011001011000101001100111011000001110001101101010100001110100000111100101100001101110001010100110101000011110001000000000010000110100010000000001110001000110000110000000000000010010001100,
00100101000010100000011100000100000001000010001000001100000100011010100100100111100000100000101110011010001000100010011010000100000101010000010100011101000011001000000000001110000011011001100110011011001000111000000010001001000101100001001010010011100011010000111110001011100000101011001011001010100000101001110000000100100011001001011100001101101001110000110010001011000001010001010110000110000001101100010100100101000001010001111000010010000100011010011110001111100100111000110000001011100000011001100000000110,
00010001001010001010010100001110000011011000100100000011100000010001000000011000000000010000000100000100000000001000110110100110001011111000110100010100100000001000000100001001100011010000101000010001000110010011000010001110100111000000001100000101101110100000011100001001000111011001001100000000000111001000010000010110100101010000001110010011100010111000010000101000000000111000100000000110000000010000111000001101000000110000001101000101100001110010011100001000000100010000110110000001000110001000100110001011,
10010101100001000000100110101011100101101001000010001100001000010001010010100000100110010000110100011100100000101000001110011000100011011000101110001111100111001000101000010011000001010010001110001111100001011001011100010001000001111010110100011000000010111000011010001110000010111010010000001110000010011000011000001101100011100000011100001001100010010001001110000001000001011010101000001010100011100000100010000011000000100001010110001001000100010000010110000111100010101010011000010001000101000011000110001001,
00001001100011011001110010000000100000011000110010010011001011000000100010010011000011100000110110001110100110101010000110000001100010001000011010001101100100100000001110010011001001001001100100000011101000111000010000100000100101101000001010000001100110011000100000001101100110000010100000000100100001001001001100101001100000101000110000000001000001010001001100000010000000010001101110100011000100110000110000001100000001101000100100000111000010001010100010001011100101010000000000001010000100011000001100011000,
00010110001010100001000100001011100000101000100110011101100101001001010010000110001000000001110100001111000010001000101000000100000010001000000110010010000001010001100010000011100101101000001100100101000101100001101100010111000010111001101000010010100000001000001010000101000001100000101110011110000101010000100000101110000001001001010110000110000100101001100000011011000011011000011100010101101001001100010100001100100111101001110100000100101000010001011010010110100000011001100100001100000001001001000100010010,
00100011100100110000010010000100100110110001001110001011100010110000111110001101100101101001010100000001000100001001000110010101100101000000011110010111100000100011111110010111100101100000101100000111000010100001000010011111100001011000101100011001100011010001100100000011101010011001001110001011001101111001001100101111100110001001010010000111100010010000000011000001000000000000011000001110110000011000111100101001100101010001011100001111100011110001100110001011000010010001000010000101000001001001000000001111,
00010000100110011001001010100010100000100000010100100111100000001001111010001001100001110011001000010101000101010000011100000100000001000001100010001011000010111000110000000011000000111000110010001000100000110001001000111100100011010001010100010000001001010000100000000101100110000000000000011000100010011000111100001100100110001001111000000101000001100001010010101010110000010000011100010111100011110000010100100101100101001001100110000000100010000001011010010101100010100001010110000010001001011010011000010000,
10001111000010110001100100001101100010111001000000000101100011101001101010000111100101011000101010100000000101100001111100010000000000011000000100010110000010001000010010001110100011111010110010010010100011011001110000100011100101001000000010011001100001011000011010010111000010001001011100000001000001000001011000000111100101111001100010000000001010010000011000010110001110000010001010000011000001110000011000001000000011011000011010010001100010010000000000001001100100100010110010100110000000001011101110010110,
00010110000110011001010110000100100000000000101100010011000100011000001100010001001011000000000110100110100000001010001110010001000010010001111010100000100101011000011110000101000100000001110110000111100100111010101100000111000000000000110100001001000001011001110000001010100110010000111010011001000100000001110100001111000110001000110110001100000100010000000110101000101001011000010010000010000010111000101000000100100001011001010010001011100111111001111110001010000001100000001000000001000011010000000100010101,
00110011000010000001011000001001100100010001101100010000100011000000101010000101100001010000101100000101000000101010101000001110001001101000110100000100100010110011010100011010100000111000101000010100100010001001010000001000000000111001011100000000000110000000100000000110000011100000110000001111000010100001000010000001000010111000011010010011100011100001110010001110000001001001001110000110100111101001110010011110000010011100000100001111000101010000100100010111000000011000111000001110000101001001000110001110,
00001011000001111000101010001011100111011000001000100000101001111001010100010001000100000001000000010000100011001010110000010010000010000010011000010101100011100001001100010001000010000000001100001110000000100001010011000000000010101000001000000101000010001000001110001110100000001001110010001011101111001000101000101001100111101000001110001111001010101000000110011110000100011000001110010110100000011000000100010101000001111001101100001110001001101000110000100111000010111000011010001001000000101001010100110101,
00010001100101110100010000000111000100110000010110001000100110000000101110000011000001100000000110000110100110110000111110100100101000111010010000011001000011011011000110001001100011110000011010000100000110001000110100000100100011101000111100001000100000010000100100010101100110110001010110000011100100101000101000011100100010110100011110010111000010110001010010000011100010001000010110010010000100001000001100000111000000110000100110110011000100001000111110001110100000010000011110000010100101011000001100011000,
10000001000100010001001000001000100011110001110110001001000011011000101010010000100011101000000000000011000010011001011010000101000111100000011010001011100010101000110110010011100100100000111000000100000001100000011000001011100001100000111100000011000000100000111100001111100101000000011100010100000101001001000010100100000101100001000000010010100100111000011010000010000101100010010100011000000100101000100110010001100010011000111100010001100000100001110100011010000110100001010010011111000001100011000010010111,
10011010000011011001011000001111000100000010000010001101100010100000001010000110000100111000001010010010001001100011011100000011100010001000010100001110101000000000001000011100000011101000110000001010100000100001101100001111000010101011011110001000100001100000110100011100000101111001100001000011100000000000010110001110000011000000110010001000101000000000100000010100001000010000101100001010000000111000100010100011101100010001010010000101100001101000101000001101100010110001010100001111100100010001010010000101,
00010111100011100000000100100010100110111000100100100010100000011000001000011100000010101001110110010100100111111001000000000100000100101001001010001111000011000001001110000011101010110000001100011100000011100010101110111011100010010000111010010110100111010001100110001010100011101000110110001001100110011001100010101001100111001000001110010001000111010001100100101010100111110000011100001010000000101000011000000111000000111000000100010111001010001011011000010100100101001000001100000001100010100010011000001010,
00010010000011011001010100011000100100101000001000001110001001001000111010001000000110110000101110000001100010110001100110101000000000001000010010001000100010100000111010001111000000000000000100001110000010001001110100010000100000111000101110000111001000001000100110001001101001101001110100000111000001011001001010101001100000010001111110001110000001111000000110011000100111101001110100010011100011100011001000100101000010011000011010010011000010101001001110011001000000010010010110010110000011111000010100000111,
00101110100100011010001110010010000101011011010010011100000001110010100000000001001101010001001100001010100011111001100010011001100100010001010110000111000010110011100110000011100111001010010110010010000010101001011100000111100110000000100100001010000011010000010000000101000101011001001010100001000111001000101100100001100100110001000100000111100001001001111000011101000000100001001110010101000000000000111010100101100010000000011110011110100111010001101010001100000111011000100010110010000011100000011100001001,
00011111000010011000101110011001101010011001000010000011100001111000110110000110100011101001101110011100100101000010000110100100000011000000010010001100000011000000101010011001100011011001100110000101000000101000001110100111000000111000100010001010000001010000110000001100100001001000010000000001000010001000101010011101000110111000100000001011000001100100100110000011100001000001100100100100100111001000101000000000100001101000010010000001100110100001101110000100100000110000001110010100101000110001110010001101,
00010010001010011000101100001000100001001000101000010011001000001000111110010001100100101000101010000010000001100000000100001110100110001001001110000011000010011001001010000010100010010011001000001100100100010000001000100100100001110001000000111000001001001001011110000001100001110001100110011110100010010011010000010111001010001001000110010101000011011001101100000111100110100000111010001111100010110001110110101001100000110010010010011001100000100000101110010001101000111001010100010110100000010001001110011001,
10010100001011010000110000001101100010000000000110011001101000000000110010011001000001101000100000100000000101010001010100000101000100011000011000001110100111001001011010000110001011101000011110000010100100100010000100000111000110110001100110010001100001010001101110010010000010001001010100010011100010000001011010001000100100100000110010000110101011101000001100001111100000001010110010011000000101010001111000001111100100010000110110000111001001100000010110100001100100101001111010010011000100111000000110000000,
10000100100000101001110100000000101000000001010110000111000001010010000100011001100011001001100010001100100111001001000100010010100001010000101110001101100111111000011000010101101101011000000000011101000101100001001000000101000001001000000000010101100110110011110010000001100011011000110100011010000011011000000100100111000000000000111110111011000111011000011100010000100111011000100110000111100001011000011110000100100001110010110110001111100000010001010000001010000100010000101100000011100000101001000000001111,
00101000100101110000010110000001100000110000000010010001001011100001010010001101000100001000010110010100000001011000010100010000000011101000110100000111000011001010100100000100000101010000101000010111000001010000111100001100100110100000111110001011100010100000011100010100000101000001000110100010101000011000111110101000100001000000000100000110100000101001110100010001100010010000010110000001000001000001011100000111101001110001010100011101100101100000100100101010100001011001101000100011100011000010010010000011,
00000010000010010000111110100011100011100000000110100111100110111001000110010001100001100001001000001111101100000001110100000000100011111010001110011010100111100001101010011001100011111000010010000010000010100000000001010010100001001001000010001000100000010000011100001001000001000000111010000100100000100000100110000100000010010001010000001010100011011000101010100111100001000001011000001110100010001010000100001010000000111000011110011111000000010001101011101000100101100001010010010010100001101000100010100001;
