memory_initialization_radix = 2;
memory_initialization_vector =
10011000000001111000001110010110100001111000100110010111100000010001100000000111100001000000001110010111000101000001001110010101100011010000100010011001000000111000010110010101100100011001000010001111100001001000100010001110100000110000110010000100000100110010001010001001100011011001100100001001000110000000011100000110000001000001000100000011100000011010010010000010000011000000001100010100000110011001011000010110100101011000010000001011100110001000000100010101000001110001001000000000100101010001000010010000,
10010111001010001000001010000110000101010001010110000001100001001000011110100011100101010001001010101000000110100000010100001110100111001001001000011011000111010001100100011100100111000000010100001001000010111000010100000010000111000000011110001011100110001010001110001111000100100001101100010010000110010010001000000011000011110000010010010001100010110001101100011111000101110001111110001010000010001001110110000010100110000000011100011111100101100000001010001000000101001001111010001110000000110000111010000111,
00001011100110000000010010010100000001100000010000000101100110110000010100010110000011111000000100010111000010110000110010000111000110100000010010010001100010011000100110000010100001110001010110000101000010101001000100100010000110000000111000001010100001000000011010001101100101000000001110001100100101100001000000010110000010011001000100010100100100101001110110001001100100111001111010011000000011111000101010010001100000011000010010000100100001100000111100000001100000010010010010000011000001011001100110001011,
00000100100001111000101000010001100000100000100100001110000011001001000110001011000011101000100000001101000000100000001110010100100111000000101100001110100000101000010100001000000111100000110110001011100001101001000100001110000000101001010000010100000100000000000110001010000000001001110110000000100001010001011010010001000001111000011000001101100001010001001110011100100001100000101110010001100101110000111110000000000101101001111010010011100000010000011000000001100001000010001100000001100001011000011000001100,
00000110100001110001110100010010100100011001000000000011100010011001101100000100100011010000110000011110000011111001000100010111000110011001101010010001100111100000100110001011000000101001011100001100100000101001001110011101000000010001010000010011100001011000000000000001000011101001010100001010100111010001001100011011000011010001011000001010000010101000010110010111100001001000100000011001100010010000010110000011000100111000000110011011100001001000110010000110100100001000011100010011100011111000110000001110,
00000011100111001000001000010111100001010000011100011001000100101000001100001011100100111001010000011110100110010001010100001101100101010000001000001001100100101000100000000011100001000000100100001101100001000000110100001000000101000000100100011101100000100000111010001000100100001000111110000011000001101000110010011101100011010000100000011010000101000001100010000101100000001000000100000010100110001000100110010000000110011001100000000001100011010001101100000101000101000000111110001110000101010000100010000010,
10010011100011101000100100000110000110101000000110000010001001100001001010001011000011100000100000011101100110110000011010001110100000010000011110001000000010010010000000011011001001111000001000001110100010001001011000001000100111100000111010011010100011100000110010000011000101100001101100010011100011101010010000010000100010001000010100011001000010010001000110000000000001101001101110000011100001100000110010011001100011100000010100000110000110110000110010101111100100000010000000001001000001001000000100010011,
00010110000010111000111000000111100011111000110010001101100000101000101000110110000100110001001100011000000011111000111110000011100000010010000100000001000010101001000110001101100000111000000100001110100000010001001010000010100110010001000100001011100000101010001100001110101010110000101010000010100011011000000000010011100101001001110010011100000111100001001110100010100111101000011000001011000001111001000010000101000110001000101010000111100001111000011000010110100001101001110000011010001010010000101010000110,
00011110000010001000101010011001000010001001100110000010100100100000101110100000101000011001101010010111100110110000011110001011001011110000101010001111001001010001110100000001100101110000010010010110000011001000011100000011000010001001001110010010100010111000101010000010000001101000101010010110001001101001010010011000100010011000010110011010100000111000111110001001001001010001101100010000100001110001010100011101000101010000111110000010100010011000000110000010100101011001010110010011100110101000011110001000,
10010010000101111001001110010111000001110000101010010000100010111010001010011001000101111001100010011101000010101010000000011111000011101000010000010100100001111000011000100111100000110000010100011011100010000000100000000011000010001000100010001010000110010001001010000100000011010000001000100000000110101000110110001110100000101001111010011010000010101000101000100011000001100001100100001100000000101001001000001000100101100000001100011011101000101001101000001011000100011001101010011000000001001001011000000001;
