1000000001101101
0000010001100001
1000001010100001
1000000100100110
0000010000010101
1000001111011110
0000000001011110
0000000000110001
1000000000101110
1000001001001110
1000010000011111
1000000011001111
1000001010100000
1000000001111111
1000010101010011
0000000110001000
1000001011001100
1000001100000101
0000000010111010
1000000110001100
0000000000101110
0000001110001101
0000001111111100
1000000101011111
0000001010001011
0000000000101100
1000001010110001
0000000100110011
1000000001100110
1000001001010100
1000001000000111
0000000100111011
0000001001010111
1000001111100110
1000011000100100
1000011001100001
1000000000100011
1000001000111010
1000010001000010
1000001110111010
1000001101011010
1000000000100110
1000001011100100
1000000010010101
1000001111110000
1000000100010110
1000000010000000
0000000110001000
1000011101110001
1000010011011100
1000001101100000
1000001010001001
1000001111110001
1000000110010011
1000000011101000
1000010111010001
1000001101011110
1000000011111110
0000000100111000
1000001110010011
1000000010111110
1000000000101101
1000011001110010
1000010100001010
1000001001111101
1000000110101111
1000001010110111
1000000101001000
1000001010011101
1000001001111010
1000001000010111
1000001010011001
1000001010000010
1000001000101111
1000001000110110
1000001101111001
1000000101100001
1000001010110011
1000001100111111
1000001000101010
1000000111001100
1000000111101011
1000000111001010
1000001001100000
1000000101110001
1000001111001101
1000000101011001
1000001011011101
1000001000001001
1000001001110100
1000001110010000
1000000111000001
1000001001011110
1000001001000111
1000001011110000
1000001000110010
1000000101101101
1000001010110011
1000001010010001
1000001001000101
1000000101001001
1000001010000110
1000000111011100
1000001000100110
1000001100111111
1000001000010000
1000000011111110
1000001101111011
1000001011101000
1000001100100010
1000000101101010
1000001110100100
1000000111100110
1000001100010111
1000001001101110
1000001001101001
1000001011111001
1000001010010011
1000001011101101
1000000101101110
1000001001110011
1000000111110001
1000000100011001
1000000110110001
1000001000000001
1000001010011111
1000000101010010
1000001001100110
