memory_initialization_radix = 2;
memory_initialization_vector =
00000000000000000111011101110111011111000111110001111110011111100000000000000000011101100111011001111011111111000111110111111110,
00000000000000000111100001111000011111001111110101111110111111110000000000000000011101111111100001111100111111010111111011111111,
00000000000000000111100001111000011111001111110101111110111111110000000000000000011110000111100001111100111111010111111011111111,
00000000000000000111100001111000011111001111110101111110111111110000000000000000011110000111100001111100111111010111111011111111,
00000000000000000111100001111000011111001111110101111110111111110000000000000000011110000111100001111100111111010111111011111111,
00000000000000000111100001111000011111001111110101111110111111110000000000000000011110000111100001111100111111010111111011111111,
00000000000000000111100001111000011111001111110101111110111111110000000000000000011110000111100001111100111111010111111011111111,
00000000000000000111011101110111011111000111110001111110011111100000000000000000011101111111100001111100011111000111111001111110,
00000000000000000111011101110111011111000111110001111110011111100000000000000000011101110111011101111100011111000111111001111110,
00000000000000000111011011110111011111000111110001111110011111100000000000000000011101101111011101111100011111000111111001111110,
00000000000000000111011011110111011111000111110001111110011111100000000000000000011101101111011101111100011111000111111001111110,
00000000000000000111011011110111011111000111110001111110011111100000000000000000011101101111011101111100011111000111111001111110,
00000000000000000111011011110111011111000111110001111110011111100000000000000000011101101111011101111100011111000111111001111110,
00000000000000000111011011110111011111001111110101111110111111110000000000000000011101101111011101111100011111000111111001111110,
00000000000000000111011011110111011111001111110101111110111111110000000000000000011101101111011101111100111111010111111011111111,
00000000000000000111010001110100011110110111101101111110011111100000000000000000011101011111011001111100011111000111111011111111,
00000000000000000111100001111000011111001111110101111110111111110000000000000000011101110111011101111100011111000111111001111110,
00000000000000000111100011111001011111001111110101111110111111110000000000000000011110001111100101111100111111010111111011111111,
00000000000000000111100011111001011111001111110101111110111111110000000000000000011110001111100101111100111111010111111011111111,
00000000000000000111100001111000011111001111110101111110111111110000000000000000011110000111100001111100111111010111111011111111,
00000000000000000111100001111000011111001111110101111110111111110000000000000000011110001111100101111100111111010111111011111111,
00000000000000000110111101101111011101000111010001110110011101100000000000000000011101100111011001111010111110110111110011111101,
00000000000000000110111001101110011100101111001101110100111101010000000000000000011011011110111001110010011100100111010011110101,
00000000000000000111011111111000011111001111110101111110111111110000000000000000011101011111011001111010111110110111110011111101,
00000000000000000111011111111000011111001111110101111110111111110000000000000000011101111111100001111100111111010111111011111111,
00000000000000000111011011110111011111000111110001111110011111100000000000000000011101110111011101111100011111000111111001111110,
00000000000000000111011011110111011111000111110001111110011111100000000000000000011101101111011101111100011111000111111001111110,
00000000000000000111011011110111011111000111110001111110011111100000000000000000011101101111011101111100011111000111111001111110,
00000000000000000111011011110111011111001111110101111110111111110000000000000000011101101111011101111100111111010111111011111111,
00000000000000000111011011110111011111001111110101111110111111110000000000000000011101101111011101111100111111010111111011111111,
00000000000000000111011011110111011111001111110101111110111111110000000000000000011101101111011101111100111111010111111011111111,
00000000000000000111010011110101011110110111101101111110011111100000000000000000011101100111011001111100011111000111111011111111,
00000000000000000111100101111001011111001111110101111110011111100000000000000000011101111111100001111101011111010111111011111111,
00000000000000000111100101111001011111001111110101111110011111100000000000000000011110010111100101111100111111010111111001111110,
00000000000000000111100101111001011111001111110101111110011111100000000000000000011110010111100101111100111111010111111001111110,
00000000000000000111010011110101011110001111100101111010011110100000000000000000011110001111100101111100111111010111111001111110,
00000000000000000110010111100110011010010110100101101011111011000000000000000000011100010111000101110100111101010111011011110111,
00000000000000000100001101000011010001011100011001001000110010010000000000000000010011011100111001010000110100010101001101010011,
00000000000000000100000101000001010000110100001101000110010001100000000000000000010000000100000001000010110000110100010111000110,
00000000000000000110011001100110011010111110110001101101111011100000000000000000010011101100111101010010010100100101010011010101,
00000000000000000111011101110111011111010111110101111110011111100000000000000000011101011111011001111011011110110111110011111101,
00000000000000000111011101110111011111001111110101111110111111110000000000000000011101110111011101111101011111010111111001111110,
00000000000000000111001001110010011110000111100001111010011110100000000000000000011101101111011101111100011111000111111001111110,
00000000000000000111011011110111011111000111110001111110011111100000000000000000011100111111010001111001011110010111101101111011,
00000000000000000111011011110111011111001111110101111110111111110000000000000000011101110111011101111100111111010111111011111111,
00000000000000000111011011110111011111001111110101111110111111110000000000000000011101101111011101111100111111010111111011111111,
00000000000000000111011011110111011111001111110101111110111111110000000000000000011101101111011101111100111111010111111011111111,
00000000000000000111010011110101011110110111101101111110011111100000000000000000011101100111011001111100011111000111111011111111,
00000000000000000110110101101101011100000111000001110010011100100000000000000000011001110110011101101011011010110110110011101101,
00000000000000000110101101101011011011100110111001101111111100000000000000000000011001001110010101100111111010000110100011101001,
00000000000000000111010111110110011110100111101001111011111111000000000000000000011101100111011001111010011110100111101111111100,
00000000000000000100100011001001010010100100101001001100010011000000000000000000011000100110001001100101111001100110011111101000,
00000000000000000100000001000000010000001100000101000010010000100000000000000000010000110100001101000011110001000100010001000100,
00000000000000000011111100111111001111111100000001000010110000110000000000000000001111011011111000111101101111100011111111000000,
00000000000000000011110110111110001111100011111001000000010000000000000000000000001111101011111100111111001111110100000111000010,
00000000000000000100000111000010010000110100001101000100010001000000000000000000001111010011110100111101001111010011111010111111,
00000000000000000110001101100011011010001110100101101010011010100000000000000000010100010101000101010100110101010101011001010110,
00000000000000000111000111110010011101110111011101111001011110010000000000000000011100101111001101111000111110010111101001111010,
00000000000000000100101111001100010011011100111001010000010100000000000000000000010111011101111001100010011000100110010001100100,
00000000000000000110010111100110011010101110101101101100111011010000000000000000010011011100111001010000010100000101001001010010,
00000000000000000111011011110111011111001111110101111110111111110000000000000000011101011111011001111011111111000111110111111110,
00000000000000000111010001110100011110101111101101111100111111010000000000000000011101101111011101111100111111010111111011111111,
00000000000000000111010101110101011110110111101101111101111111100000000000000000011100101111001101111000111110010111101101111011,
00000000000000000111010001110100011110110111101101111110011111100000000000000000011101010111010101111011111111000111111001111110,
00000000000000000011111111000000001111100011111000111110101111110000000000000000001110101011101100111001001110010011100100111001,
00000000000000000100001101000011010000011100001001000000110000010000000000000000001111110011111100111100101111010011101110111100,
00000000000000000100101011001011010010111100110001001101010011010000000000000000010010111100110001001011110011000100110001001100,
00000000000000000011110010111101001110101011101100111011101111000000000000000000001111011011111000111101001111010011111010111111,
00000000000000000100000111000010001111111100000000111111110000000000000000000000010000001100000100111110001111100011110110111110,
00000000000000000100010001000100010001000100010001000110010001100000000000000000010000110100001101000010010000100100001111000100,
00000000000000000100010011000101010001010100010101000111010001110000000000000000010000111100010001000011110001000100010111000110,
00000000000000000100000101000001010000000100000001000001010000010000000000000000010000110100001101000010110000110100010011000101,
00000000000000000100001001000010010000100100001001000011010000110000000000000000010000001100000100111111110000000100000001000000,
00000000000000000100110101001101010011111101000001010001110100100000000000000000010010111100110001001101110011100100111101001111,
00000000000000000100001001000010010000001100000101000001010000010000000000000000010000110100001101000010110000110100001111000100,
00000000000000000100010101000101010001010100010101000101110001100000000000000000010000001100000100111110101111110011111010111111,
00000000000000000110000101100001011001010110010101100111011001110000000000000000010111000101110001011111111000000110000101100001,
00000000000000000101000101010001010100111101010001010110010101100000000000000000010111010101110101100001011000010110001111100100,
00000000000000000101001011010011010101010101010101010111110110000000000000000000010010100100101001001011010010110100110101001101,
00000000000000000101010101010101010110000101100001011010110110110000000000000000010101010101010101011000010110000101101011011011,
00000000000000000011110000111100001110001011100100110111101110000000000000000000001110110011101100110111101110000011011010110111,
00000000000000000011111100111111001111000011110000111100001111000000000000000000001111101011111100111011001110110011100110111010,
00000000000000000011111010111111001110111011110000111100001111000000000000000000001111000011110000111000101110010011100010111001,
00000000000000000100000101000001001111101011111100111111001111110000000000000000001111111100000000111101001111010011111010111111,
00000000000000000100010011000101010000010100000101000001010000010000000000000000010000101100001100111110101111110011111000111110,
00000000000000000100011011000111010001011100011001000111010001110000000000000000010001011100011001000100010001000100010111000110,
00000000000000000100100001001000010010000100100001001001110010100000000000000000010001111100100001000111010001110100100011001001,
00000000000000000100011011000111010001100100011001000111110010000000000000000000010010001100100101001000110010010100101011001011,
00000000000000000100000111000010001111110011111100111111001111110000000000000000010000110100001101000000110000010100000011000001,
00000000000000000100000001000000001111100011111000111110101111110000000000000000010000010100000100111111001111110100000001000000,
00000000000000000100011001000110010000111100010001000011110001000000000000000000010000101100001101000000010000000100000011000001,
00000000000000000100010101000101010000101100001101000001110000100000000000000000010001101100011101000011110001000100001001000010,
00000000000000000100001001000010010000001100000101000000110000010000000000000000010000111100010001000001010000010100000011000001,
00000000000000000100000111000010001111100011111000111110001111100000000000000000010000001100000100111110001111100011111000111110,
00000000000000000100000011000001001111010011110100111101101111100000000000000000010000011100001000111101101111100011110110111110,
00000000000000000011111010111111001110100011101000111001101110100000000000000000001111111100000000111011101111000011101110111100,
00000000000000000011111010111111001110101011101100111001101110100000000000000000010000001100000100111101001111010011110100111101,
00000000000000000100001001000010001111110011111100111110101111110000000000000000001111110011111100111010101110110011100100111001,
00000000000000000100000111000010001111111100000001000000010000000000000000000000001111111100000000111100101111010011110010111101,
00000000000000000100010001000100010000100100001001000011010000110000000000000000010000110100001101000001010000010100001011000011,
00000000000000000100011001000110010000101100001101000010110000110000000000000000010000111100010001000000010000000100000011000001,
00000000000000000100100011001001010010000100100001001001110010100000000000000000010010010100100101001000010010000100100111001010,
00000000000000000100100001001000010001111100100001001000110010010000000000000000010010001100100101000111110010000100100101001001,
00000000000000000100011011000111010001010100010101000110110001110000000000000000010001111100100001000110110001110100100001001000,
00000000000000000100010011000101010000010100000101000000110000010000000000000000010001010100010101000010110000110100001101000011,
00000000000000000100010011000101010000001100000101000000010000000000000000000000010001100100011001000010110000110100001001000010,
00000000000000000100100001001000010001100100011001000110110001110000000000000000010001100100011001000011010000110100001111000100,
00000000000000000100101011001011010010000100100001000110110001110000000000000000010010010100100101000111010001110100011011000111,
00000000000000000100011111001000010001001100010101000100010001000000000000000000010010010100100101000110110001110100010101000101,
00000000000000000100001111000100001111000011110000111000101110010000000000000000010001011100011001000000010000000011111010111111,
00000000000000000100001111000100001110111011110000111001001110010000000000000000010000101100001100111010001110100011010110110110,
00000000000000000100001101000011001110101011101100111000001110000000000000000000010000111100010000111100001111000011100110111010,
00000000000000000100001011000011001111011011111000111100101111010000000000000000010001010100010101000001110000100100000111000010,
00000000000000000100001111000100001111111100000000111110101111110000000000000000010000001100000100111011001110110011100110111010,
00000000000000000100001101000011010000010100000101000010010000100000000000000000010000110100001101000000010000000100000101000001,
00000000000000000100011101000111010001100100011001000111010001110000000000000000010001101100011101000100110001010100010111000110,
00000000000000000100011001000110010000111100010001000100010001000000000000000000010001100100011001000100010001000100010101000101,
00000000000000000100010001000100010000010100000101000010010000100000000000000000010001101100011101000100010001000100010111000110,
00000000000000000100011111001000010001011100011001000110010001100000000000000000010001010100010101000001010000010100000111000010,
00000000000000000100001011000011001111110011111101000000010000000000000000000000010001011100011001000011010000110100010001000100,
00000000000000000100011001000110010000100100001001000001110000100000000000000000010000111100010001000000010000000100000011000001,
00000000000000000100011001000110010000011100001001000000110000010000000000000000010001100100011001000001010000010011111111000000,
00000000000000000100100111001010010001111100100001001000110010010000000000000000010010001100100101000110010001100100011011000111,
00000000000000000100101001001010010001011100011001000011110001000000000000000000010010000100100001000101110001100100010111000110,
00000000000000000100101011001011010001110100011101000110010001100000000000000000010010101100101101000110110001110100010101000101,
00000000000000000100010001000100001110101011101100110110001101100000000000000000010001100100011000111110001111100011101100111011,
00000000000000000100010101000101001110100011101000110100001101000000000000000000010001000100010000111001001110010011001010110011,
00000000000000000100010011000101001110100011101000110110001101100000000000000000010001001100010100111010001110100011010100110101,
00000000000000000100000011000001001110111011110000111010101110110000000000000000001111100011111000111000101110010011011110111000,
00000000000000000100001111000100001111101011111100111101101111100000000000000000010000110100001100111101101111100011110010111101,
00000000000000000100011001000110010000111100010001000100110001010000000000000000010001110100011101000100010001000100010101000101,
00000000000000000100011011000111010001001100010101000101110001100000000000000000010001101100011101000100010001000100010011000101,
00000000000000000100010001000100010000001100000101000001110000100000000000000000010001011100011001000010110000110100001111000100,
00000000000000000100011001000110010000110100001101000011110001000000000000000000010001010100010101000001110000100100001011000011,
00000000000000000100001001000010001111010011110100111101001111010000000000000000010001010100010101000001110000100100000111000010,
00000000000000000100011011000111010001000100010001000101010001010000000000000000010001000100010001000000010000000100000101000001,
00000000000000000100010111000110010000010100000101000001010000010000000000000000010001000100010001000000110000010100000101000001,
00000000000000000100011101000111010000100100001001000001010000010000000000000000010001011100011001000001010000010100000001000000,
00000000000000000100100011001001010001010100010101000101110001100000000000000000010001111100100001000011110001000100001011000011,
00000000000000000100100011001001010001010100010101000011110001000000000000000000010010010100100101000110110001110100011011000111,
00000000000000000100100001001000010000100100001000111111110000000000000000000000010001110100011101000010010000100011111111000000,
00000000000000000100011011000111001111100011111000111010101110110000000000000000010010001100100101000001110000100011111010111111,
00000000000000000100010111000110001110011011101000110010001100100000000000000000010001010100010100111010101110110011010010110101,
00000000000000000100011001000110001110110011101100110110001101100000000000000000010001100100011000111010101110110011010000110100,
00000000000000000011101000111010001101001011010100110011001100110000000000000000001110010011100100110011001100110011000110110010,
00000000000000000100001111000100001111101011111100111101101111100000000000000000010000010100000100111100001111000011101000111010,
00000000000000000100001101000011010000000100000001000000010000000000000000000000010000111100010001000000010000000100000001000000,
00000000000000000100001001000010001111101011111100111111001111110000000000000000010000110100001100111111110000000100000001000000,
00000000000000000100001011000011001111110011111101000000010000000000000000000000010001001100010101000001110000100100001011000011,
00000000000000000100001111000100010000001100000101000001110000100000000000000000010000110100001100111111110000000100000011000001,
00000000000000000100000111000010001111010011110100111100101111010000000000000000010000111100010001000000010000000100000001000000,
00000000000000000100100111001010010001111100100001000111110010000000000000000000010001010100010101000001010000010100000101000001,
00000000000000000100010001000100010000000100000000111111110000000000000000000000010001100100011001000010110000110100001101000011,
00000000000000000100001011000011001111001011110100111011001110110000000000000000010001010100010101000001010000010011111111000000,
00000000000000000100011101000111010000111100010001000011010000110000000000000000010001001100010100111111110000000011111100111111,
00000000000000000100010011000101001111111100000000111110001111100000000000000000010000111100010000111111001111110011110110111110,
00000000000000000011111111000000001101111011100000110100001101000000000000000000010000000100000000111001101110100011011110111000,
00000000000000000100001111000100001110011011101000110011101101000000000000000000010000111100010000111010101110110011010110110110,
00000000000000000100010001000100001110001011100100110010001100100000000000000000010000101100001100111000001110000011001010110011,
00000000000000000100010111000110001110100011101000110100001101000000000000000000010001010100010100111001001110010011001000110010,
00000000000000000011100100111001001101101011011100110101001101010000000000000000001110011011101000110110101101110011010100110101,
00000000000000000011111100111111001110101011101100111000001110000000000000000000001110111011110000111000101110010011011000110110,
00000000000000000011111010111111001110101011101100111001101110100000000000000000010000011100001000111100101111010011101010111011,
00000000000000000100000001000000001111001011110100111011101111000000000000000000001111100011111000111010001110100011100110111010,
00000000000000000100010101000101010000101100001101000011110001000000000000000000010001001100010101000010010000100100001011000011,
00000000000000000100001001000010010000000100000001000001010000010000000000000000010000010100000100111110001111100011111010111111,
00000000000000000100000111000010001111010011110100111100101111010000000000000000010000010100000100111111110000000100000011000001,
00000000000000000100010101000101010000010100000101000001010000010000000000000000010000101100001100111110001111100011110010111101,
00000000000000000100011001000110010000101100001101000001110000100000000000000000010001101100011101000100010001000100010001000100,
00000000000000000100001101000011001111010011110100111010101110110000000000000000010001010100010101000001010000010011111100111111,
00000000000000000100000011000001001110111011110000111001101110100000000000000000010000011100001000111011101111000011100110111010,
00000000000000000011111000111110001101111011100000110100001101000000000000000000001111101011111100111000101110010011010110110110,
00000000000000000011111000111110001101110011011100110011101101000000000000000000001111101011111100110111101110000011010000110100,
00000000000000000100000011000001001101101011011100110000001100000000000000000000001111101011111100110110001101100011001000110010,
00000000000000000100001011000011001110010011100100110011001100110000000000000000010000000100000000110110001101100010111100101111,
00000000000000000100011001000110001110110011101100110100101101010000000000000000010001000100010000111001001110010011001000110010,
00000000000000000010110110101110001100000011000000110001001100010000000000000000001100101011001100110101001101010011011100110111,
00000000000000000011101000111010001110001011100100110111001101110000000000000000001100011011001000110010001100100011001010110011,
00000000000000000011110110111110001110101011101100111000101110010000000000000000001111011011111000111010001110100011100000111000,
00000000000000000100000011000001001111010011110100111011101111000000000000000000001111011011111000111010101110110011100100111001,
00000000000000000100011111001000010001100100011001000110010001100000000000000000010001010100010101000010010000100100000111000010,
00000000000000000011000100110001001101000011010000111000001110000000000000000000010000011100001001000001010000010100001001000010,
00000000000000000011100010111001001110000011100000111001101110100000000000000000001011101010111100110010101100110011011110111000,
00000000000000000100010001000100010000001100000101000000110000010000000000000000010000001100000100111101101111100011110010111101,
00000000000000000100011111001000010001011100011001000101010001010000000000000000010010010100100101000111110010000100100001001000,
00000000000000000100000011000001001111010011110100111010101110110000000000000000010000100100001000111111001111110011110100111101,
00000000000000000100000101000001001111001011110100111010101110110000000000000000001111100011111000111100001111000011101000111010,
00000000000000000100000001000000001110100011101000110111001101110000000000000000010000100100001000111100101111010011101000111010,
00000000000000000100000011000001001110101011101100110111001101110000000000000000010000000100000000111010001110100011011010110111,
00000000000000000011111111000000001101111011100000110011001100110000000000000000001111101011111100111000001110000011010010110101,
00000000000000000100000011000001001110100011101000110100101101010000000000000000001111000011110000110110101101110011000010110001,
00000000000000000100001011000011001111011011111000111001001110010000000000000000010000011100001000111011101111000011011010110111,
00000000000000000010111010101111001101001011010100111001001110010000000000000000001100000011000000110110101101110011110100111101,
00000000000000000011010110110110001110100011101000111101001111010000000000000000001011000010110000110010001100100011011100110111,
00000000000000000011101100111011001110011011101000110111101110000000000000000000001110010011100100111000101110010011011010110111,
00000000000000000011110000111100001110101011101100111010001110100000000000000000001110101011101100111001101110100011100100111001,
00000000000000000011010000110100001110001011100100111001101110100000000000000000010000001100000100111111110000000011111010111111,
00000000000000000010100110101010001011110010111100110100001101000000000000000000001010110010101100110001001100010011010010110101,
00000000000000000010100100101001001011100010111000110010001100100000000000000000001010000010100000101101101011100011001110110100,
00000000000000000011010000110100001110001011100100110111101110000000000000000000001100100011001000110101101101100011100010111001,
00000000000000000011101100111011001111111100000000111111110000000000000000000000001110001011100100111110001111100011110010111101,
00000000000000000011110010111101001111011011111000111101001111010000000000000000001101110011011100111010101110110011101000111010,
00000000000000000011100100111001001110001011100100110111101110000000000000000000001110111011110000111100001111000011101110111100,
00000000000000000011111000111110001110100011101000111000001110000000000000000000001111001011110100111001101110100011100000111000,
00000000000000000011110000111100001110011011101000110111001101110000000000000000001110100011101000111000001110000011010110110110,
00000000000000000011111111000000001110100011101000110111001101110000000000000000001111111100000000111010001110100011011100110111,
00000000000000000010101010101011001100101011001100101111101100000000000000000000001100010011000100110101101101100011001100110011,
00000000000000000010011100100111001011111011000000101101101011100000000000000000001001101010011100101111001011110010110110101110,
00000000000000000011000100110001001101111011100000111101001111010000000000000000001100101011001100111010001110100100000101000001,
00000000000000000011001110110100001111001011110101000010110000110000000000000000001011100010111000110100101101010011100110111010,
00000000000000000011100000111000001101110011011100110101101101100000000000000000001101100011011000111000001110000011100000111000,
00000000000000000011101000111010001110101011101100111010101110110000000000000000001110100011101000111001001110010011100100111001,
00000000000000000010101010101011001011111011000000110010101100110000000000000000001101001011010100110110101101110011100000111000,
00000000000000000010101000101010001011111011000000110011001100110000000000000000001010101010101100101111101100000011001100110011,
00000000000000000010001110100100001010001010100100101101001011010000000000000000001001110010011100101100101011010011000110110010,
00000000000000000001110110011110001010011010101000100111101010000000000000000000001001001010010100101100001011000011000000110000,
00000000000000000001111100011111001011101010111100101001101010100000000000000000000111100001111000101011101011000010100110101010,
00000000000000000010011110101000001100110011001100110001001100010000000000000000001000000010000000101101001011010010100110101010,
00000000000000000010100000101000001011101010111100101100101011010000000000000000001011100010111000110110001101100011010110110110,
00000000000000000011010000110100001110001011100100111011101111000000000000000000001001010010010100101011101011000010100100101001,
00000000000000000010110100101101001101001011010100110101001101010000000000000000001011001010110100110101001101010011010100110101,
00000000000000000011101110111100001111010011110100111100101111010000000000000000001110111011110000111100101111010011110110111110,
00000000000000000010110000101100001101101011011100111001101110100000000000000000001011011010111000110110101101110011011110111000,
00000000000000000010111110110000001101111011100000111001001110010000000000000000001100010011000100111001101110100011110010111101,
00000000000000000011000010110001001101110011011100111100101111010000000000000000001100011011001000111001001110010011111100111111,
00000000000000000010110010101101001101110011011100111101001111010000000000000000001001111010100000101110101011110011010000110100,
00000000000000000010100010101001001011101010111100101101101011100000000000000000001011101010111100110101101101100011011000110110,
00000000000000000011100100111001001111011011111000111111001111110000000000000000001100101011001100110111101110000011100000111000,
00000000000000000010010110100110001011100010111000101110001011100000000000000000001010010010100100110010001100100011000010110001,
00000000000000000010111000101110001101100011011000110111001101110000000000000000001001000010010000101101001011010010110000101100,
00000000000000000011011110111000001111010011110101000000110000010000000000000000001101101011011100111101101111100011111100111111,
00000000000000000011011010110111001111001011110100111110001111100000000000000000001110010011100100111111001111110100001011000011,
00000000000000000011100110111010001111110011111100111011101111000000000000000000001110010011100100111101101111100011110010111101,
00000000000000000011100010111001010000000100000001000001010000010000000000000000001110000011100000111110001111100011110100111101,
00000000000000000011101010111011010000010100000101000010110000110000000000000000001110100011101001000010110000110100010011000101,
00000000000000000011111000111110010001011100011001001001110010100000000000000000001110110011101101000001110000100100001111000100,
00000000000000000011111100111111010001010100010101001000110010010000000000000000001111101011111101000101010001010100100001001000,
00000000000000000011100010111001010000010100000101000100110001010000000000000000010000010100000101000110110001110100100111001010,
00000000000000000010100010101001001101001011010100111100001111000000000000000000001010001010100100110101001101010011110000111100,
00000000000000000011100010111001001111111100000001000010010000100000000000000000001111010011110101000011010000110100011001000110,
00000000000000000010010100100101001011011010111000110001001100010000000000000000001010110010101100110010101100110011011100110111,
00000000000000000010111000101110001101111011100000111100001111000000000000000000001011000010110000110100101101010011100110111010,
00000000000000000001010100010101001000010010000100100011001000110000000000000000001001100010011000110000001100000011000110110010,
00000000000000000010100100101001001100101011001100110011101101000000000000000000001000001010000100101010101010110010101110101100,
00000000000000000010010000100100001010111010110000101010001010100000000000000000000110100001101000100100101001010010001000100010,
00000000000000000100000001000000010001001100010101000110110001110000000000000000001101010011010100111011001110110011101100111011,
00000000000000000100111101001111010011111101000001001101010011010000000000000000010000101100001101000110010001100100011111001000,
00000000000000000100111101001111010010100100101001000000110000010000000000000000010101010101010101010010110100110100101101001011,
00000000000000000100010001000100001111110011111100110011101101000000000000000000010000101100001100111100101111010011001000110010,
00000000000000000100001111000100001111100011111000110000101100010000000000000000010000110100001100111111001111110011010000110100,
00000000000000000100001011000011010010000100100001001011010010110000000000000000010011000100110001001000010010000011110100111101,
00000000000000000011101100111011010000101100001101000100110001010000000000000000010000011100001001000111110010000100101001001010,
00000000000000000011110010111101010000110100001101000101010001010000000000000000001111111100000001000110010001100100100001001000,
00000000000000000010111100101111001110010011100100111111001111110000000000000000001110011011101001000001010000010100001101000011,
00000000000000000010011100100111001100101011001100111100001111000000000000000000001000111010010000110000101100010011100110111010,
00000000000000000011001110110100001110111011110000111111110000000000000000000000001111000011110001000010010000100100010111000110,
00000000000000000001100010011001001000000010000000100010001000100000000000000000001001011010011000101101001011010011000000110000,
00000000000000000010111100101111001101111011100000111010101110110000000000000000001001111010100000110001001100010011010110110110,
00000000000000000001001010010011000111011001111000011111000111110000000000000000000101000001010000011111101000000001111000011110,
00000000000000000001110110011110001010001010100100100111001001110000000000000000000101111001100000100010101000110010001010100011,
00000000000000000011100100111001001111110011111101000000010000000000000000000000001010110010101100110011001100110011010100110101,
00000000000000000011111100111111010000010100000101000000010000000000000000000000001111010011110101000001110000100100001111000100,
00000000000000000101110111011110010110011101101001001111110100000000000000000000010101011101011001010010010100100100101001001010,
00000000000000000100101101001011010010100100101001000010110000110000000000000000010101010101010101010010110100110100100111001010,
00000000000000000011010010110101001100110011001100101011101011000000000000000000001110100011101000111000001110000011000010110001,
00000000000000000100010011000101001111110011111100110000101100010000000000000000001111000011110000111110001111100011100010111001,
00000000000000000011001010110011001101100011011000110110001101100000000000000000010001111100100001000001010000010011010010110101,
00000000000000000010110110101110001101111011100000111010101110110000000000000000001011100010111000110101101101100011011010110111,
00000000000000000011010010110101001110111011110000111110101111110000000000000000001110111011110001000001010000010100001111000100,
00000000000000000010100010101001001100100011001000110111101110000000000000000000001010100010101000110011101101000011011010110111,
00000000000000000010110010101101001101110011011100111101101111100000000000000000001001000010010000101111001011110011100000111000,
00000000000000000011000100110001001110011011101000111101001111010000000000000000001101110011011100111110001111100100000011000001,
00000000000000000010000110100010001010011010101000101101101011100000000000000000001000011010001000101001101010100010111010101111,
00000000000000000011000010110001001110001011100100111011101111000000000000000000001010001010100100110000001100000011001110110100,
00000000000000000001101110011100001001100010011000100110101001110000000000000000000111111010000000101000101010010010100010101001,
00000000000000000001110100011101001001111010100000100100101001010000000000000000000111000001110000100110101001110010010110100110,
00000000000000000010001010100011001010111010110000101010001010100000000000000000001010001010100100110001101100100011000110110010,
00000000000000000100110111001110010010001100100100111101101111100000000000000000001100101011001100110110101101110011001010110011,
00000000000000000100101101001011010010100100101001000010110000110000000000000000010101110101011101010010110100110100100001001000,
00000000000000000011110010111101001111101011111100111001001110010000000000000000010000010100000101000001110000100011101110111100,
00000000000000000010001000100010001000001010000100011001100110100000000000000000001100111011010000110011101101000010110110101110,
00000000000000000100100111001010001111001011110100100110101001110000000000000000000111011001111000011100100111010001011010010111,
00000000000000000001110000011100000110101001101100011000000110000000000000000000001101101011011100110010101100110010100110101010,
00000000000000000011011110111000001110010011100100110110101101110000000000000000001000000010000000100000001000000001110110011110,
00000000000000000011110110111110010000000100000000111110101111110000000000000000010100000101000001001011110011000100001001000010,
00000000000000000010100000101000001100101011001100110111001101110000000000000000001001010010010100101110101011110011010000110100,
00000000000000000010110110101110001110000011100000111100101111010000000000000000001010101010101100110100001101000011100000111000,
00000000000000000010101110101100001101010011010100111001101110100000000000000000001100001011000100111100001111000100001101000011,
00000000000000000001101010011011001001010010010100101010101010110000000000000000001001000010010000101110001011100011010010110101,
00000000000000000010010110100110001011010010110100101110101011110000000000000000000111110001111100100111101010000010101110101100,
00000000000000000001010110010110001001000010010000011110100111110000000000000000000101110001011100100010101000110001111100011111,
00000000000000000001100000011000001001100010011000100001001000010000000000000000000101100001011000100011101001000001111010011111,
00000000000000000010101000101010001100001011000100101111001011110000000000000000001011000010110000110110101101110011010110110110,
00000000000000000101101111011100010101011101011001001011110011000000000000000000010001100100011001000100010001000011101100111011,
00000000000000000100101011001011010001101100011100111110001111100000000000000000010101110101011101010001110100100100011111001000,
00000000000000000100011101000111010000001100000100110100001101000000000000000000010000100100001000111101001111010011001100110011,
00000000000000000011100100111001001100001011000100100001101000100000000000000000010000100100001000111001101110100010101010101011,
00000000000000000101000001010000001111111100000000100100101001010000000000000000001110101011101100110000001100000001110110011110,
00000000000000000010101110101100001001010010010100011010100110110000000000000000001100111011010000101100001011000001111000011110,
00000000000000000110010001100100010101010101010100111111110000000000000000000000010000110100001100111001101110100010101010101011,
00000000000000000110110011101101011000011110001001010001010100010000000000000000011100001111000101011111111000000100011111001000,
00000000000000000010011100100111001100101011001100111001101110100000000000000000010001110100011101001010010010100100100101001001,
00000000000000000010011000100110001101000011010000111011101111000000000000000000001010100010101000110101001101010011100110111010,
00000000000000000010100000101000001101000011010000111100101111010000000000000000001011001010110100111001001110010100000011000001,
00000000000000000001100100011001001010100010101000101100101011010000000000000000000111111010000000101110101011110011010000110100,
00000000000000000010000100100001001010011010101000101011001010110000000000000000000110111001110000101001001010010010100110101010,
00000000000000000001010110010110001001001010010100100011001000110000000000000000000101110001011100100101001001010010010100100101,
00000000000000000010110000101100001101011011011000110011101101000000000000000000000111000001110000101000101010010010100110101010,
00000000000000000101010111010110010100001101000101000110110001110000000000000000010000100100001001000101110001100011111010111111,
00000000000000000101110001011100010100001101000101000000010000000000000000000000010111110101111101010101110101100100100001001000,
00000000000000000101101001011010010010101100101100110100001101000000000000000000010100011101001001000101010001010011010000110100,
00000000000000000111000111110010010111100101111001000011010000110000000000000000011010001110100101010111010101110011110100111101,
00000000000000000111000111110010010110110101101100111001101110100000000000000000011100010111000101011011110111000011101100111011,
00000000000000000110100011101001010100110101001100110001001100010000000000000000011011101110111101010111110110000011010010110101,
00000000000000000110100101101001010101111101100000111011101111000000000000000000011000000110000001001100010011000010100110101010,
00000000000000000110111111110000010111111110000001000111010001110000000000000000011011111111000001011110110111110100001111000100,
00000000000000000110110111101110010110000101100000110111001101110000000000000000011011110110111101011111010111110100010111000110,
00000000000000000010101000101010001101101011011100111101001111010000000000000000011001011110011001011110010111100101000101010001,
00000000000000000010000110100010001011111011000000111000101110010000000000000000001001000010010000110001001100010011010110110110,
00000000000000000010000100100001001100110011001100111110001111100000000000000000001001010010010100110101101101100100000001000000,
00000000000000000001110010011101001011001010110100110111001101110000000000000000000111011001111000101101001011010011101010111011,
00000000000000000001110000011100001001100010011000101110001011100000000000000000000110011001101000100111001001110010111110110000,
00000000000000000011100100111001001111101011111101000001010000010000000000000000001000000010000000101100001011000011011010110111,
00000000000000000110111111110000011001111110100001011011010110110000000000000000011000010110000101011110110111110101100011011001,
00000000000000000110100101101001010100110101001100110011101101000000000000000000011011001110110101011011110111000100001111000100,
00000000000000000110000101100001010010101100101100100111001001110000000000000000011000111110010001001101010011010010101010101011,
00000000000000000110110111101110010101110101011100110010101100110000000000000000011010000110100001010000010100000010101000101010,
00000000000000000111000101110001010110110101101100110101101101100000000000000000011011101110111101011001110110100011100110111010,
00000000000000000110010111100110010101000101010000110110001101100000000000000000011011111111000001011000110110010010111110110000,
00000000000000000101101011011011010011000100110000110000101100010000000000000000011001101110011101010111110110000011110100111101,
00000000000000000110110101101101010111011101111001000001010000010000000000000000011010111110110001011010010110100011100110111010,
00000000000000000110010111100110010101101101011100111010101110110000000000000000011010100110101001011011010110110011111111000000,
00000000000000000110011001100110010100101101001100101111001011110000000000000000011001111110100001011000110110010011110000111100,
00000000000000000010101010101011001101001011010100110110101101110000000000000000010001000100010000111011101111000010101100101011,
00000000000000000001110010011101001010111010110000110101101101100000000000000000001000001010000100101110001011100011010000110100,
00000000000000000001101110011100001100001011000100111100001111000000000000000000000111100001111000110001001100010011111010111111,
00000000000000000001110100011101001011111011000000111100001111000000000000000000000111001001110100101101001011010011110000111100,
00000000000000000010000100100001001011010010110100111000001110000000000000000000000110101001101100101001001010010011010010110101,
00000000000000000110010001100100010111000101110001010001010100010000000000000000001110111011110001000010010000100100100001001000,
00000000000000000110111011101111010110100101101000111011101111000000000000000000011100110111001101100011111001000100110111001110,
00000000000000000110111001101110010101010101010100101001001010010000000000000000011011001110110101010101010101010010111010101111,
00000000000000000110110101101101010101011101011000101010001010100000000000000000011011101110111101010101110101100010011110101000,
00000000000000000100111111010000010001111100100000111001101110100000000000000000010111101101111101001101110011100011000010110001,
00000000000000000110101001101010010101001101010100100111001001110000000000000000010010110100101101000000010000000010110110101110,
00000000000000000001101110011100000110000001100000010000100100010000000000000000010101111101100001000110010001100010001000100010,
00000000000000000100000011000001001101101011011100100001101000100000000000000000001110001011100100110011001100110010011100100111,
00000000000000000110000111100010010011101100111100100111101010000000000000000000011000001110000101001110110011110010100010101001,
00000000000000000101111111100000010010111100110000100100001001000000000000000000010111111110000001001100110011010010010110100110,
00000000000000000101000111010010010001011100011000101101001011010000000000000000011001010110010101010011110101000010111100101111,
00000000000000000010000010100001001001100010011000100101001001010000000000000000000110001001100100010111100110000001010000010100,
00000000000000000001101100011011001010110010101100110110001101100000000000000000000111000001110000100111101010000010111000101110,
00000000000000000001011000010110001010011010101000110010001100100000000000000000000110000001100000101011001010110011011010110111,
00000000000000000010010010100101001100100011001000111011001110110000000000000000001000110010001100101111101100000011100110111010,
00000000000000000011001000110010001110000011100000111100001111000000000000000000001001101010011100101111101100000011010100110101,
00000000000000000110001001100010010110101101101101010001010100010000000000000000010111111110000001100001011000010110000011100001,
00000000000000000101000011010001010000001100000100100101101001100000000000000000010101010101010101000110110001110011000000110000,
00000000000000000101100011011001010001101100011100100010101000110000000000000000010100011101001001000001010000010010001100100011,
00000000000000000101101111011100010011100100111000110111101110000000000000000000011010100110101001010101010101010010100110101010,
00000000000000000101000111010010010011111101000001000111110010000000000000000000001110011011101000110010101100110010100010101001,
00000000000000000110110011101101010110011101101000101110001011100000000000000000011001001110010101010111110110000011101110111100,
00000000000000000000111010001111000011111001000000001111000011110000000000000000001101110011011100101111001011110001110010011101,
00000000000000000110000111100010010100011101001000101110101011110000000000000000001010000010100000100100101001010001101100011011,
00000000000000000110001101100011010011110100111100100101101001100000000000000000011001001110010101010001110100100010100010101001,
00000000000000000110001011100011010011010100110100100100001001000000000000000000011000110110001101001101110011100010010010100101,
00000000000000000011110000111100001100110011001100011111101000000000000000000000011001010110010101010001010100010010011100100111,
00000000000000000001101110011100000111110001111100011110000111100000000000000000000011110000111100010000000100000000111100001111,
00000000000000000001100100011001001001111010100000110011101101000000000000000000000110011001101000100100001001000010110010101101,
00000000000000000001010010010101001001001010010100101100101011010000000000000000000101110001011100100111001001110011000110110010,
00000000000000000100001011000011010001100100011001001000010010000000000000000000001111011011111001000011110001000100010101000101,
00000000000000000100100001001000010010001100100101000110010001100000000000000000010001010100010101000111110010000100011111001000,
00000000000000000010101000101010001010001010100100100101001001010000000000000000010101011101011001001101110011100011111010111111,
00000000000000000000101010001011000010010000100100000111100010000000000000000000000011000000110000001011000010110000100100001001,
00000000000000000000110010001101000010110000101100001000000010000000000000000000000010100000101000001000100010010000011100000111,
00000000000000000101101001011010010010110100101100101100001011000000000000000000001101001011010100101011101011000001100010011001,
00000000000000000110100011101001010110000101100000110011101101000000000000000000011000111110010001010010010100100010110100101101,
00000000000000000110011111101000010110000101100000110110001101100000000000000000011011000110110001011011110111000011011110111000,
00000000000000000000110000001100000011010000110100001101000011010000000000000000001001010010010100100010101000110001101000011010,
00000000000000000101110101011101010011001100110100101000101010010000000000000000000111011001111000011011000110110001001110010100,
00000000000000000110010001100100010100010101000100101000101010010000000000000000011001001110010101010001110100100010100010101001,
00000000000000000110001111100100010011111101000000100111101010000000000000000000011000111110010001001111110100000010011100100111,
00000000000000000010111000101110001001110010011100010111000101110000000000000000011000111110010001001111110100000010010100100101,
00000000000000000001101110011100000111111010000000011111101000000000000000000000000011011000111000001110100011110000110110001110,
00000000000000000001011000010110001000101010001100101011101011000000000000000000000110011001101000100100101001010010110000101100,
00000000000000000001011010010111001001001010010100101100101011010000000000000000000110011001101000100111001001110011000000110000,
00000000000000000101001001010010010100100101001001010001010100010000000000000000010100110101001101010011010100110101001001010010,
00000000000000000100111101001111010011100100111001001011010010110000000000000000010011111101000001010000010100000100111101001111,
00000000000000000000100010001001000010001000100100000111100010000000000000000000001110010011100100110010001100100010001100100011,
00000000000000000000100000001000000001111000100000000110000001100000000000000000000010001000100100001000000010000000011010000111,
00000000000000000000010100000101000001010000010100000101000001010000000000000000000001111000100000000111000001110000011000000110,
00000000000000000010101010101011001000101010001100010010000100100000000000000000000001111000100000000111000001110000011000000110,
00000000000000000110011001100110010100010101000100100100101001010000000000000000011001010110010101010000110100010010010000100100,
00000000000000000101001001010010010001111100100000110000101100010000000000000000010110011101101001001010110010110010110100101101,
00000000000000000000101110001100000011001000110100001100100011010000000000000000000110101001101100011001100110100001010010010101,
00000000000000000101110001011100010010111100110000100111001001110000000000000000000110101001101100011001000110010001001010010011,
00000000000000000110001101100011010100001101000100100111101010000000000000000000011000111110010001010000110100010010011100100111,
00000000000000000110001101100011010100000101000000101000001010000000000000000000011000110110001101010000010100000010100000101000,
00000000000000000010010000100100000111110001111100010011100101000000000000000000011000001110000101001101010011010010010000100100,
00000000000000000010111010101111001100000011000000101110001011100000000000000000000100010001000100010001100100100001000000010000,
00000000000000000011001010110011001110110011101100111100101111010000000000000000001110001011100100111110101111110100000001000000,
00000000000000000010110010101101001110000011100000111011001110110000000000000000001100000011000000111001101110100011110100111101,
00000000000000000101000011010001010100001101000101001111010011110000000000000000010100100101001001010001110100100101000001010000,
00000000000000000101000011010001010011111101000001001100010011000000000000000000010011101100111101001110110011110100110111001110,
00000000000000000010000110100010000111001001110100010010100100110000000000000000010001110100011100111101101111100010101010101011,
00000000000000000001101110011100000101101001011100001110000011100000000000000000000111010001110100011000100110010000111110010000,
00000000000000000001100110011010000101001001010100001100000011000000000000000000000110101001101100010101100101100000110100001101,
00000000000000000011111010111111001100010011000100010101000101010000000000000000000110110001101100010110000101100000110000001100,
00000000000000000110010101100101010011110100111100100000101000010000000000000000011001000110010001001101110011100001111100011111,
00000000000000000101001111010100010001000100010000100001001000010000000000000000011000011110001001001110010011100010010000100100,
00000000000000000001001000010010000100110001001100010010000100100000000000000000000100111001010000010011000100110000111110010000,
00000000000000000101101001011010010010001100100100100100101001010000000000000000000110110001101100011001000110010001001010010011,
00000000000000000110000111100010010011010100110100100101001001010000000000000000011000010110000101001100110011010010001110100100,
00000000000000000110010111100110010100100101001000101010101010110000000000000000011000110110001101001111010011110010011110101000,
00000000000000000001110000011100000110000001100000001111100100000000000000000000010111110101111101001100110011010010010000100100,
00000000000000000011110000111100001111010011110100111011101111000000000000000000000100100001001000010010100100110001000110010010,
00000000000000000100110101001101010011100100111001001101010011010000000000000000010011100100111001001110110011110100111001001110,
00000000000000000100101011001011010010111100110001001010110010110000000000000000010011000100110001001100110011010100110001001100,
00000000000000000101000001010000010100000101000001001110010011100000000000000000010100010101000101010000010100000100110111001110,
00000000000000000100111011001111010011010100110101001001110010100000000000000000010011110100111101001110110011110100110101001101,
00000000000000000010010000100100000111001001110100001111000011110000000000000000010010000100100000111101001111010010100010101001,
00000000000000000010000110100010000110011001101000001011100011000000000000000000001000011010001000011010000110100000110010001101,
00000000000000000010010100100101000111001001110100001101000011010000000000000000001000100010001000011010000110100000101110001100,
00000000000000000011101100111011001011010010110100010010100100110000000000000000001001100010011000011101000111010000110100001101,
00000000000000000110010001100100010011011100111000011110100111110000000000000000010111100101111001001000010010000001110000011100,
00000000000000000101001101010011010000110100001100011110100111110000000000000000011001100110011001010000110100010010000100100001,
00000000000000000000111110010000000100000001000000001111000011110000000000000000000100011001001000010001100100100000111100001111,
00000000000000000110000011100001010011111101000000101100001011000000000000000000000111110001111100011100100111010001010110010110,
00000000000000000110011111101000010101101101011100110010001100100000000000000000011010001110100101010110010101100010111110110000,
00000000000000000101101111011100010011100100111000110000001100000000000000000000011000111110010001010100110101010011001010110011,
00000000000000000000111010001111000011011000111000001010000010100000000000000000001110111011110000110000101100010001101000011010,
00000000000000000100000011000001010000011100001001000000110000010000000000000000000100111001010000010100000101000001001100010011,
00000000000000000100110011001101010011010100110101001100010011000000000000000000010011010100110101001110010011100100110101001101,
00000000000000000100110101001101010011001100110101001010110010110000000000000000010011010100110101001101010011010100101111001100,
00000000000000000100111111010000010011110100111101001100110011010000000000000000010011111101000001001110010011100100101111001100,
00000000000000000100110011001101010010111100110001001000110010010000000000000000010011101100111101001101110011100100101111001100,
00000000000000000000101110001100000010111000110000001010100010110000000000000000001110000011100000110010001100100010011010100111,
00000000000000000000001000000010000000100000001000000010000000100000000000000000000000110000001100000011000000110000001010000011,
00000000000000000000001000000010000000100000001000000010000000100000000000000000000000100000001000000010000000100000001000000010,
00000000000000000000100110001010000010010000100100000111100010000000000000000000000000110000001100000011000000110000001100000011,
00000000000000000101110101011101010001110100011100011011100111000000000000000000001110011011101000101100001011000001001010010011,
00000000000000000100101001001010001110111011110000011011000110110000000000000000011000000110000001001010110010110001110110011110,
00000000000000000000110000001100000011010000110100001100100011010000000000000000000100011001001000010010100100110001000010010001,
00000000000000000011011110111000001011111011000000011100100111010000000000000000000110101001101100011001000110010001001100010011,
00000000000000000010100110101010001001110010011100011101000111010000000000000000001011111011000000101001101010100001101010011011,
00000000000000000010011110101000001010001010100100100110001001100000000000000000001010000010100000100111001001110010001000100010,
00000000000000000000011100000111000001111000100000000111100010000000000000000000000011011000111000001110100011110000110110001110,
00000000000000000100001001000010010000101100001101000000110000010000000000000000000111010001110100011110000111100001110100011101,
00000000000000000100101001001010010010011100101001000111010001110000000000000000010010001100100101001000110010010100011001000110,
00000000000000000100101101001011010010100100101001000111110010000000000000000000010010111100110001001010110010110100100001001000,
00000000000000000100110001001100010010101100101101001000010010000000000000000000010010110100101101001001110010100100011101000111,
00000000000000000100100111001010010010001100100101000110110001110000000000000000010010111100110001001010110010110100100011001001,
00000000000000000001011010010111000101110001011100010110100101110000000000000000001111100011111000111101101111100011101010111011,
00000000000000000000010100000101000001011000011000000101000001010000000000000000000001010000010100000101000001010000010010000101,
00000000000000000001010100010101000101100001011000010110100101110000000000000000000101000001010000010100100101010001010000010100,
00000000000000000000100110001010000010101000101100001011000010110000000000000000000011100000111000001111100100000001000000010000,
00000000000000000001100100011001000100111001010000001001100010100000000000000000000011010000110100001011100011000000100000001000,
00000000000000000001010010010101000100011001001000001010000010100000000000000000000110110001101100010101100101100000101100001011,
00000000000000000000111100001111000100000001000000001110100011110000000000000000000011010000110100001110000011100000110100001101,
00000000000000000000101100001011000011011000111000001101100011100000000000000000000011010000110100001111000011110000111010001111,
00000000000000000001100110011010000111000001110000011011000110110000000000000000000100011001001000010100000101000001010000010100,
00000000000000000010101100101011001011001010110100101010001010100000000000000000001000101010001100100100101001010010001100100011,
00000000000000000011010000110100001100111011010000101111101100000000000000000000001100000011000000110000101100010010110110101110,
00000000000000000100001011000011010000011100001000111101101111100000000000000000001110101011101100111010001110100011011000110110,
00000000000000000100011111001000010001100100011001000010010000100000000000000000010001011100011001000100010001000100000001000000,
00000000000000000100100111001010010010000100100001000100010001000000000000000000010010010100100101001000010010000100010001000100,
00000000000000000100100101001001010010000100100001000101110001100000000000000000010010000100100001000110110001110100010001000100,
00000000000000000100001001000010010000100100001001000001010000010000000000000000010001111100100001000111010001110100010101000101,
00000000000000000010001110100100001001011010011000100101101001100000000000000000001110100011101000111011001110110011101000111010,
00000000000000000000100100001001000010101000101100001011000010110000000000000000000011001000110100001111000011110000111100001111,
00000000000000000000110000001100000011101000111100001111000011110000000000000000000011100000111000010000000100000001000010010001,
00000000000000000000011100000111000010010000100100001001100010100000000000000000000010001000100100001011000010110000101110001100,
00000000000000000000100010001001000010101000101100001011000010110000000000000000000001111000100000001001100010100000100110001010,
00000000000000000000110100001101000011100000111000001110000011100000000000000000000010101000101100001100100011010000110010001101,
00000000000000000001110100011101000111101001111100011101100111100000000000000000000100101001001100010011100101000001001100010011,
00000000000000000011010100110101001101011011011000110011101101000000000000000000001011000010110000101101101011100010110000101100,
00000000000000000011111100111111001111110011111100111011001110110000000000000000001110101011101100111010001110100011011110111000,
00000000000000000100010101000101010001000100010001000000010000000000000000000000010000110100001101000010010000100011111000111110,
00000000000000000100011111001000010001101100011101000010110000110000000000000000010001101100011101000101110001100100001001000010,
00000000000000000100100011001001010001110100011101000100010001000000000000000000010010000100100001000110110001110100001111000100,
00000000000000000100100111001010010010000100100001000101010001010000000000000000010010010100100101000111110010000100010011000101,
00000000000000000100100111001010010001111100100001000100110001010000000000000000010010100100101001001000110010010100010111000110,
00000000000000000100101001001010010010001100100101000110010001100000000000000000010010010100100101001000010010000100010101000101,
00000000000000000100100011001001010010001100100101000111110010000000000000000000010010100100101001001001110010100100011111001000,
00000000000000000011111111000000010000010100000101000000110000010000000000000000010001000100010001000101010001010100010011000101,
00000000000000000011100100111001001110101011101100111010001110100000000000000000001110110011101100111100101111010011101110111100,
00000000000000000011011010110111001110001011100100111000001110000000000000000000001110000011100000111010001110100011100110111010,
00000000000000000011100010111001001110100011101000111001101110100000000000000000001101101011011100111000001110000011100000111000,
00000000000000000011101110111100001111011011111000111101001111010000000000000000001110100011101000111100001111000011101110111100,
00000000000000000100000111000010010000110100001101000010010000100000000000000000001111101011111101000000010000000011111111000000,
00000000000000000100011011000111010001110100011101000110010001100000000000000000010001000100010001000101010001010100010001000100,
00000000000000000100100011001001010010010100100101000111110010000000000000000000010010001100100101001001010010010100100001001000,
00000000000000000100101001001010010010100100101001001000110010010000000000000000010010100100101001001010110010110100100101001001,
00000000000000000100100111001010010010011100101001000111110010000000000000000000010010010100100101001001010010010100011111001000,
00000000000000000100101011001011010010100100101001001000010010000000000000000000010010101100101101001010010010100100100001001000,
00000000000000000100101101001011010010101100101101001000110010010000000000000000010010110100101101001010110010110100100011001001,
00000000000000000100110001001100010010111100110001001001110010100000000000000000010011000100110001001011010010110100100101001001,
00000000000000000100101001001010010010001100100101000110010001100000000000000000010011000100110001001010110010110100100001001000,
00000000000000000100101101001011010010011100101001000111010001110000000000000000010010011100101001001000010010000100010111000110,
00000000000000000100110111001110010011011100111001001100010011000000000000000000010011010100110101001100110011010100101011001011,
00000000000000000100101101001011010011000100110001001011010010110000000000000000010011001100110101001100110011010100101111001100,
00000000000000000100101011001011010010110100101101001010110010110000000000000000010010110100101101001100010011000100101101001011,
00000000000000000100100001001000010010010100100101001000110010010000000000000000010010001100100101001001110010100100100101001001,
00000000000000000100100101001001010010101100101101001010010010100000000000000000010010011100101001001010110010110100101001001010,
00000000000000000100101011001011010011000100110001001100010011000000000000000000010010100100101001001011010010110100101101001011,
00000000000000000100101101001011010011001100110101001100010011000000000000000000010010101100101101001100010011000100101111001100,
00000000000000000100101111001100010011010100110101001100010011000000000000000000010010110100101101001100110011010100110011001101,
00000000000000000100110011001101010011011100111001001101010011010000000000000000010011000100110001001101010011010100110011001101,
00000000000000000100110101001101010011100100111001001101110011100000000000000000010011011100111001001110010011100100111001001110,
00000000000000000100110011001101010011010100110101001100010011000000000000000000010011001100110101001101110011100100110011001101,
00000000000000000100110011001101010011001100110101001011010010110000000000000000010011000100110001001100010011000100101101001011,
00000000000000000100110001001100010011001100110101001011010010110000000000000000010011001100110101001100110011010100101101001011,
00000000000000000100110111001110010011010100110101001011010010110000000000000000010011010100110101001100110011010100101011001011,
00000000000000000100101001001010010010001100100101000110010001100000000000000000010011011100111001001100010011000100101001001010;
