1001100011001000
0001100010100000
1001001011100100
1000001100101011
1000010100001100
1000001001000111
0000000001101100
0000001110010100
0000001100101010
0000000011101000
0000001100111110
0000001110001100
0000001000110011
1000001010100011
0000000110011101
0000000001111110
0000000110111011
0000000000000101
1000000100100010
0000000101000000
1000001000111111
0000001000110110
1000010000011101
1000010001111010
0000001001101000
0000000111001001
0000010101010010
1000000000000110
1000000101100100
1000000011010000
1000000000011011
0000001000010010
0000001000101001
1000001000001011
1000001110101010
0000000011101010
1000001100111011
1000000100000000
1000000101101010
1000000000111101
0000000001100110
1000000011011100
1000000010001100
0000010100110100
0000000101000000
1000000000000010
0000001010110000
0000000111011000
1000001011110010
0000001010000011
0000000111000010
1000000110001101
1000001010010011
0000000101011010
0000000000001011
0000000100010000
0000001010001110
1000011001110010
0000000101101000
1000000011001010
0000001110001110
0000001110011000
0000001011110011
1000010010111100
1000000100001010
1000000000111101
1000010000111101
