10010011000101101101011011100000
00011001110100011110000101000000
00010010100110001100101101100000
00000010100100011101001111010100
10000101000001111011001110011000
10000010100010111010000010101000
00000000001101010001110010010010
00000110111011000000100001010000
10000000000110001100101100011011
10000011110000101000110011101000
10000010110101100111011111100100
00000000101010100110110100100001
00000000001000100001011111011101
00000111000011000000001100101000
10000010011001111011110101100100
00000100000001110010111101110000
00000001000100000010000000011110
00000011110011011110110001000100
00000001011101011110010111000010
10000100010100110010100010010000
10000001110101111111111111111110
00000101000101111100001010000000
00000010011111110100111011111100
00000011000111100001101111111000
00000000000000000010110010011110
10000000111101101000011111010110
00000101110100010011101101000000
10000001000011010011010010110110
10000011111111101111111110101000
00000010011110010110000001010100
00000110100011000100001110110000
10000001101010111011100001100110
10000100010111100001111110100000
00000000110001001011110100100100
00000010100001001111100010111100
00000001101010101000001010101010
00000010100010000000001100100000
00000101000011011101101010111000
10000011100011010000110100111000
00000100111110111110101101111000
00000000101111000001011011000100
00000010110101010001100011110100
00000001100001010100100010100000
10000001111111101011100000111100
10000110101100000101011101010000
00000001110011110101100101100010
00000010100111101100011001011000
00000000001110000111101010100010
00000000100100011110001101110011
10000000011110100000010110110010
10000001110111100010011010111010
00000010101011001100110011101100
00000100010010111101111110111000
10000000001111000001101001001100
00000000001100101110001010011010
10000010011000011011100010110100
00000010100001101100001110100000
10000010010110111100010001101000
00000000101101111101000100110111
00000011110011010010000010011100
00000001000100000110100101100110
00000100101100101111100110101000
10000010000010000000001001101100
10000010100010111100000001011100
00000001000000101111010010001110
00000010011010110111111100110100
00000011110101110100110011011100
