0000000010110100
1000000001010110
1000000000111101
0000000101011100
1000000000100000
0000000000001001
0000000001110001
1000000100101011
1000000000110100
1000000011001011
1000000010011001
0000000000100000
1000000000010101
0000000000100010
1000000001011110
0000000000011111
1000000000101101
1000000011011000
1000000101110010
1000000001000100
0000000010110100
0000000000010011
0000000010001010
0000000000101100
0000000100110101
0000000101001101
1000000101111111
0000000011100010
1000000100111000
1000000001111100
0000000010110000
0000000001101101
0000000101000101
0000000001010000
0000000000001100
1000000100001011
1000000001101101
1000000001001000
1000000001110001
0000000000110001
1000000010001001
0000000010000100
1000000011111000
1000000010011100
1000000101111010
1000000010001111
1000000001111000
1000000010100111
0000000010001110
1000000011110010
0000000101001111
0000000000110010
0000000001111000
0000000101011010
0000000100011010
1000000101110001
1000000000000110
1000000001110110
1000000001100110
1000000011101010
0000000010100001
0000000000111101
0000000000011111
0000000000001000
