10000001010011001000010011000010
10000000010110001011000011111001
00000000000011111110110100000101
00000000101000000001100001011010
00000000000010001001001001010110
00000000010100111101111011000010
10000000101001101011100101001101
10000000011101111011010111001110
00000001001000110000111000001100
10000000100000001000101111001011
10000000010101110010001101001101
00000000001110111010101000011000
10000001001010101011011011110000
00000000001100010101010111001010
00000000100111010001000110010111
10000000000010000001001010101100
10000000010001111010110101111010
00000000010101010110100001001010
10000000001101110011100001011110
00000001010001111001010101100000
10000000101011001000000011011101
10000000000111111110100111010010
00000001000111111001010011110010
00000001000011101011100010011110
00000000001010010001100111000100
00000001100110110101011001001100
00000000111000010101001000110101
00000001000100110111101010001110
10000000001010010000111010101010
10000000001110000000110011000100
10000001100100010101011111010000
10000000101010111100110001110000
10000000011100000110011100100111
00000000001001001100101100111010
00000000010000101000110110010110
10000000010001000010010011000110
10000000000110100010001101111111
10000000001111010000100101011110
00000000011100100011011100101010
10000000110110111011010001101101
00000000010110101110000110001010
10000000101000001100010101010101
00000000000001001101000111011010
10000000110000100110001000010011
10000000110110111001010010000000
00000000100000110100000110110011
00000001000010000111010111011000
10000000001000110111001001101010
00000000110010110000111000110100
10000000010100110110111000000010
10000000010101100111110011001000
00000000100010000001101111100000
10000000010111011110111111000110
10000000110011010110000101100110
00000000001111001000100010000110
00000000101100101100010001111001
10000001001010010110110110111000
00000000111000001101011010001010
00000000001010010110001000100100
10000000011100111000100110101101
10000000110100111110101101001100
00000000011100000110000100111100
00000000001110111001001010001001
00000000001111010000100000111010
