00000100001010000100111000100000
00000011000001001110101110001000
00000001101110001010010000010010
00000100001000100101001101111000
10000001000110111000101100010110
10000100001101111101101100100000
00000011000110101100011110111000
00000010110111001011100111010100
10000001110100010101010101010110
10000010011000111101010111010000
00000000010110011110000110011111
00000011100010000001011000111100
10000000110101111001110001010001
10000010001110110111000001011100
10000001100110110111100101100000
10000010000001111100011001110000
10000001011000010000001001111110
10000011000110001101110000010100
00000001101000011000100111011000
00000001011010100011110010000110
10000000011100010010001111111001
00000000000001000011101001000110
10000001101011100110010010111010
00000010001101101000110001001000
10000000001100001000111001111110
10000000001111111011010011101110
10000010000001001101000010001100
00000011000011101101111001000100
00000000100000101111110111011101
10000000001111100111010110011011
00000011010100110010111110011100
10000000101111110101001000011001
10000000100010101001111001110010
10000011100110101010110001011100
10000010101001011000111111001100
10000000001001111001101010001110
10000001111000000100001011001000
10000011100110101100111100110100
10000001011010010101010110000110
10000001101100110001110111010100
10000001101110010001101001100100
10000000101100010100011010000111
10000011110010000100001110101100
10000100001001101110101011000000
00000000000111101101000101000110
00000000101101100111111001100011
10000010100111100011001111010000
10000001100110100111101011111110
10000010100001101000110000011000
10000001010011111100101011001010
10000010101110101111110001011000
10000011011001110110111010100100
00000000110101010111110101110001
10000011011001011101110011111000
10000111010001111111001111011000
10000000000001011101000011101111
10000000001001100111110000110011
00000001100010110110111110000100
00000000110101111001011010100000
10000000001011000000000011001100
10000010011111001001101010010000
10000001011011010010010111001010
10000011111101011100011001100000
10000100000110001010110100001000
10000011001111010011001000100000
10000010000011011111110001101100
10000010011011100111011101000000
10000011010011001100010100011000
10000010001001110100000110110100
10000011001000110101010101100000
10000010001000010100011010011000
10000010000111000111001111101100
10000010110101000100000010111000
10000001111000111101100110000000
10000010011100011110011100110000
10000011000111011000000110010000
10000001100010101001100111010100
10000010110011110011110100110000
10000010001010100101100101111000
10000001001100100100000100101010
10000001101100110111000011010110
10000001111100011101101011100000
10000011000110000011110011010000
10000011010101000100111101001000
10000010110011010100000100010000
10000001101001110100101000001100
10000010100101001000100101101100
10000001001110011101001000100000
10000001111100110001000010000000
10000010111000011001011110111000
10000010111111111110100001001000
10000010001001111011110100100100
10000001111001110011011010110110
10000011011100000100111011011100
10000001101111110101101011100100
10000011011100011000000100010000
10000001101111111000011101010010
10000010101000101111110000111100
10000001101000010011110110111010
10000001100110111010101010110100
10000010000011001111110011000000
10000001001110100101011111111100
10000001101000110010101010111010
10000001000010100000101101101100
10000001100001111111110111000100
10000011100111011111101111011100
10000010011001101010001011001100
10000001010110100111101111010000
10000010111001110010100011111100
10000001101110111000010101000110
10000000100011101001110111101011
10000010010001010111001110010000
10000010111110010110001110010100
10000010000100111111000110110000
10000010001101110011110001110100
10000010010000011110101111010100
10000010110100111100101001011000
10000010010111101110010110111100
10000011001110000011011011110100
10000010000000110111001110111000
10000001101111000110111001111000
10000010111111111111111001101100
10000001110011011011011000000110
10000011001111110101001011010000
10000010000000111111000001101100
10000001111000010101010101110100
10000001110010110100011111111100
10000010011010110011101011010000
