memory_initialization_radix = 2;
memory_initialization_vector =
00000000000000000110010101100101010100100101001000110101001101010000000000000000011001001110010101010010010100100011010010110101,
00000000000000000110010101100101010100100101001000110101001101010000000000000000011001010110010101010010010100100011010100110101,
00000000000000000110010011100101010100100101001000110100001101000000000000000000011001001110010101010010010100100011010100110101,
00000000000000000110010011100101010100010101000100110011001100110000000000000000011001001110010101010001110100100011010000110100,
00000000000000000110010011100101010100000101000000110001001100010000000000000000011001001110010101010000110100010011001000110010,
00000000000000000110010011100101010011110100111100101110101011110000000000000000011001010110010101001111110100000010111110110000,
00000000000000000110001011100011010011100100111000101100001011000000000000000000011000111110010001001110110011110010110110101110,
00000000000000000110001011100011010011000100110000101010001010100000000000000000011000101110001101001101010011010010101100101011,
00000000000000000110001011100011010010110100101100100111101010000000000000000000011000101110001101001100010011000010100010101001,
00000000000000000110001011100011010010100100101000100101001001010000000000000000011000101110001101001010110010110010011010100111,
00000000000000000110000111100010010010010100100100100001101000100000000000000000011000100110001001001001110010100010001110100100,
00000000000000000110000011100001010001111100100000011111000111110000000000000000011000011110001001001000110010010010000000100000,
00000000000000000110000001100000010001101100011100011100000111000000000000000000011000000110000001000111010001110001110110011110,
00000000000000000101111111100000010001011100011000011001000110010000000000000000011000000110000001000101110001100001101010011011,
00000000000000000101111011011111010001001100010100010110000101100000000000000000010111110101111101000101010001010001011110011000,
00000000000000000101111001011110010000110100001100010011100101000000000000000000010111101101111101000100010001000001010010010101,
00000000000000000110010101100101010100110101001100110111001101110000000000000000011001010110010101010010110100110011011010110111,
00000000000000000110010101100101010100110101001100110111001101110000000000000000011001010110010101010011010100110011011100110111,
00000000000000000110010101100101010100101101001100110110001101100000000000000000011001010110010101010011010100110011011010110111,
00000000000000000110010101100101010100100101001000110101001101010000000000000000011001010110010101010010110100110011010110110110,
00000000000000000110010011100101010100010101000100110010101100110000000000000000011001001110010101010001110100100011010000110100,
00000000000000000110010011100101010100000101000000110000101100010000000000000000011001001110010101010000110100010011000110110010,
00000000000000000110010001100100010011110100111100101110001011100000000000000000011001001110010101001111110100000010111100101111,
00000000000000000110001011100011010011011100111000101011101011000000000000000000011000110110001101001110010011100010110010101101,
00000000000000000110001011100011010011000100110000101001001010010000000000000000011000101110001101001100110011010010101000101010,
00000000000000000110001011100011010010110100101100100110101001110000000000000000011000101110001101001011110011000010011110101000,
00000000000000000110001001100010010010100100101000100100001001000000000000000000011000101110001101001010110010110010010110100110,
00000000000000000110000111100010010010001100100100100000101000010000000000000000011000100110001001001001010010010010001000100010,
00000000000000000110000011100001010001110100011100011110000111100000000000000000011000010110000101001000010010000001111100011111,
00000000000000000110000001100000010001100100011000011011100111000000000000000000011000000110000001000110110001110001110100011101,
00000000000000000101111101011111010001010100010100011001000110010000000000000000010111111110000001000101110001100001101000011010,
00000000000000000101111011011111010001000100010000010110000101100000000000000000010111110101111101000100110001010001011110011000,
00000000000000000110010101100101010101000101010000111001001110010000000000000000011001010110010101010100010101000011100100111001,
00000000000000000110010011100101010101000101010000111001001110010000000000000000011001010110010101010100010101000011100100111001,
00000000000000000110010101100101010101000101010000111001001110010000000000000000011001010110010101010100010101000011100100111001,
00000000000000000110010111100110010101000101010000111001101110100000000000000000011001011110011001010100010101000011101000111010,
00000000000000000110010101100101010100101101001100110110001101100000000000000000011001010110010101010011010100110011100000111000,
00000000000000000110010011100101010100010101000100110011001100110000000000000000011001001110010101010010010100100011010010110101,
00000000000000000110010011100101010100000101000000110000101100010000000000000000011001001110010101010000110100010011001000110010,
00000000000000000110001111100100010011101100111100101110001011100000000000000000011001001110010101001111110100000010111100101111,
00000000000000000110001011100011010011011100111000101011101011000000000000000000011000110110001101001110010011100010110010101101,
00000000000000000110001011100011010011000100110000101000101010010000000000000000011000101110001101001100110011010010101000101010,
00000000000000000110001011100011010010110100101100100110101001110000000000000000011000101110001101001011110011000010011110101000,
00000000000000000110001001100010010010011100101000100011101001000000000000000000011000101110001101001010010010100010010100100101,
00000000000000000110000111100010010010001100100100100000101000010000000000000000011000011110001001001001010010010010000110100010,
00000000000000000110000011100001010001111100100000011110100111110000000000000000011000010110000101001000010010000001111100011111,
00000000000000000101111111100000010001100100011000011100100111010000000000000000011000000110000001000110110001110001110110011110,
00000000000000000101111101011111010001010100010100011010000110100000000000000000010111111110000001000101110001100001101110011100,
00000000000000000110011001100110010101011101011000111101001111010000000000000000011001100110011001010101110101100011110010111101,
00000000000000000110011001100110010101011101011000111100101111010000000000000000011001100110011001010101110101100011110100111101,
00000000000000000110010111100110010101011101011000111100101111010000000000000000011001011110011001010101110101100011110010111101,
00000000000000000110010111100110010101011101011000111101101111100000000000000000011001011110011001010101110101100011110100111101,
00000000000000000110011011100111010110000101100001000100010001000000000000000000011001100110011001010110010101100011111010111111,
00000000000000000110010111100110010101010101010100111100101111010000000000000000011001101110011101011000010110000100001111000100,
00000000000000000110010101100101010100100101001000110101101101100000000000000000011001010110010101010011010100110011100000111000,
00000000000000000110010011100101010100001101000100110001101100100000000000000000011001010110010101010001110100100011010000110100,
00000000000000000110010001100100010011110100111100101110101011110000000000000000011001001110010101001111110100000011000000110000,
00000000000000000110001011100011010011011100111000101011101011000000000000000000011000111110010001001110110011110010110100101101,
00000000000000000110001001100010010011000100110000101001001010010000000000000000011000101110001101001101010011010010101010101011,
00000000000000000110001001100010010010110100101100100110101001110000000000000000011000101110001101001011110011000010011110101000,
00000000000000000110001001100010010010011100101000100100001001000000000000000000011000100110001001001010010010100010010100100101,
00000000000000000110000111100010010010001100100100100001101000100000000000000000011000011110001001001001010010010010001010100011,
00000000000000000110000011100001010001111100100000011111000111110000000000000000011000010110000101001000010010000010000010100001,
00000000000000000101111111100000010001101100011100011101000111010000000000000000011000000110000001000111010001110001111000011110,
00000000000000000110011011100111010110000101100001000010010000100000000000000000011001101110011101011000010110000100001001000010,
00000000000000000110011011100111010110000101100001000010010000100000000000000000011001101110011101011000010110000100001001000010,
00000000000000000110011101100111010110010101100101000100010001000000000000000000011001110110011101011000110110010100001101000011,
00000000000000000110011101100111010110011101101001000111010001110000000000000000011001101110011101011001010110010100010111000110,
00000000000000000110011111101000010111000101110001001101110011100000000000000000011001111110100001011011010110110100101011001011,
00000000000000000110100001101000010111011101111001010001010100010000000000000000011010000110100001011101010111010101000011010001,
00000000000000000110011011100111010110000101100001000110010001100000000000000000011001111110100001011100010111000100111011001111,
00000000000000000110010111100110010100111101010000111010001110100000000000000000011001100110011001010101010101010011111000111110,
00000000000000000110010011100101010100001101000100110010101100110000000000000000011001010110010101010010010100100011010110110110,
00000000000000000110010001100100010011110100111100101111101100000000000000000000011001001110010101010000010100000011000100110001,
00000000000000000110001101100011010011100100111000101100001011000000000000000000011000111110010001001110110011110010111000101110,
00000000000000000110001001100010010011000100110000101001001010010000000000000000011000101110001101001101010011010010101010101011,
00000000000000000110001001100010010010101100101100100111001001110000000000000000011000100110001001001011110011000010100000101000,
00000000000000000110001001100010010010100100101000100101001001010000000000000000011000100110001001001010010010100010011000100110,
00000000000000000110000111100010010010001100100100100010101000110000000000000000011000011110001001001001110010100010010000100100,
00000000000000000110000011100001010001111100100000100000001000000000000000000000011000010110000101001000010010000010000100100001,
00000000000000000110011111101000010111011101111001001111110100000000000000000000011001111110100001011101010111010100111011001111,
00000000000000000110100001101000010111100101111001001111110100000000000000000000011010000110100001011110010111100101000011010001,
00000000000000000110100001101000010111010101110101001110010011100000000000000000011010000110100001011110010111100100111111010000,
00000000000000000110011111101000010111010101110101001110110011110000000000000000011001111110100001011101010111010100111001001110,
00000000000000000110011111101000010111000101110001001100110011010000000000000000011001111110100001011101010111010100111001001110,
00000000000000000110011111101000010110111101110001001011010010110000000000000000011001111110100001011011110111000100101111001100,
00000000000000000110011101100111010110011101101001001000110010010000000000000000011001111110100001011011110111000100110001001100,
00000000000000000110010111100110010101001101010100111011101111000000000000000000011001100110011001010110110101110100000111000010,
00000000000000000110010101100101010100101101001100110110101101110000000000000000011001010110010101010011110101000011100010111001,
00000000000000000110010011100101010100010101000100110100001101000000000000000000011001001110010101010001110100100011010110110110,
00000000000000000110010011100101010011111101000000110000101100010000000000000000011001001110010101010000010100000011001000110010,
00000000000000000110001101100011010011100100111000101101001011010000000000000000011000111110010001001110110011110010111010101111,
00000000000000000110001001100010010011001100110100101010101010110000000000000000011000101110001101001101010011010010110000101100,
00000000000000000110000111100010010010110100101100101000101010010000000000000000011000100110001001001100010011000010100110101010,
00000000000000000110000111100010010010100100101000100110001001100000000000000000011000011110001001001010110010110010011100100111,
00000000000000000110000101100001010010010100100100100100101001010000000000000000011000011110001001001001110010100010010110100110,
00000000000000000110100111101010011001000110010001011101010111010000000000000000011010010110100101100011111001000101110011011101,
00000000000000000110100111101010011001000110010001011101110111100000000000000000011010011110101001100100011001000101110111011110,
00000000000000000110100111101010011000111110010001011100010111000000000000000000011010011110101001100100011001000101110101011101,
00000000000000000110100001101000011000010110000101011000010110000000000000000000011010010110100101100010111000110101101001011010,
00000000000000000110100011101001011000001110000101010110110101110000000000000000011010000110100001100000011000000101011101010111,
00000000000000000110011101100111010110111101110001001011010010110000000000000000011010000110100001011110010111100101000101010001,
00000000000000000110011011100111010110010101100101000101110001100000000000000000011001110110011101011001110110100100011101000111,
00000000000000000110010011100101010101100101011001000010110000110000000000000000011000111110010001010110010101100100010011000101,
00000000000000000110010111100110010101010101010100111101101111100000000000000000011001100110011001010110110101110100000101000001,
00000000000000000110010101100101010100110101001100111001001110010000000000000000011001010110010101010100010101000011101110111100,
00000000000000000110001111100100010100001101000100110100101101010000000000000000011001000110010001010001110100100011011010110111,
00000000000000000110010001100100010011111101000000110001101100100000000000000000011001000110010001010000110100010011001110110100,
00000000000000000110001111100100010011100100111000101110101011110000000000000000011001000110010001001110110011110011000000110000,
00000000000000000110001001100010010011001100110100101100001011000000000000000000011000101110001101001101110011100010110100101101,
00000000000000000110000101100001010010111100110000101010001010100000000000000000011000011110001001001100010011000010101100101011,
00000000000000000110000011100001010010100100101000101000001010000000000000000000011000010110000101001010110010110010100100101001,
00000000000000000110100011101001011000000110000001010100010101000000000000000000011010000110100001011111111000000101010001010100,
00000000000000000110100011101001011000000110000001010100110101010000000000000000011010001110100101100000011000000101010011010101,
00000000000000000110100011101001010111111110000001010011110101000000000000000000011010001110100101100000011000000101010011010101,
00000000000000000110100001101000010111110101111101010011010100110000000000000000011010000110100001011111111000000101001101010011,
00000000000000000110100011101001010111110101111101010011110101000000000000000000011010000110100001011111010111110101001111010100,
00000000000000000110011111101000010111010101110101001111010011110000000000000000011010000110100001011110010111100101000101010001,
00000000000000000110011101100111010110100101101001001000110010010000000000000000011001111110100001011011010110110100101101001011,
00000000000000000101111111100000010101011101011001001001010010010000000000000000011001000110010001011001110110100100101101001011,
00000000000000000110011001100110010110000101100001001000010010000000000000000000011001011110011001011000110110010100100001001000,
00000000000000000110010111100110010101100101011001000011010000110000000000000000011001011110011001010111010101110100011011000111,
00000000000000000110001111100100010100100101001000111010101110110000000000000000011000110110001101010010110100110011110110111110,
00000000000000000110010011100101010100010101000100110110001101100000000000000000011001001110010101010010010100100011100000111000,
00000000000000000110001111100100010011110100111100110011001100110000000000000000011001000110010001010000010100000011010010110101,
00000000000000000110001111100100010011011100111000110000001100000000000000000000011001000110010001001110010011100011000110110010,
00000000000000000110001001100010010011000100110000101110001011100000000000000000011000110110001101001101010011010010111100101111,
00000000000000000110000011100001010010110100101100101100001011000000000000000000011000011110001001001011110011000010110010101101,
00000000000000000110100101101001011000111110010001011101110111100000000000000000011010010110100101100011111001000101111001011110,
00000000000000000110100101101001011000111110010001011101110111100000000000000000011010010110100101100011111001000101110111011110,
00000000000000000110100101101001011000110110001101011100110111010000000000000000011010011110101001100011111001000101110111011110,
00000000000000000110010011100101010111100101111001010111110110000000000000000000011010010110100101100010111000110101110001011100,
00000000000000000110010111100110010111110101111101010111110110000000000000000000010101101101011101010001010100010100101001001010,
00000000000000000110010111100110010111011101111001010110010101100000000000000000011010001110100101100000111000010101100001011000,
00000000000000000110011101100111010111011101111001010010110100110000000000000000011001000110010001011011110111000101001011010011,
00000000000000000101101011011011010100111101010001001010010010100000000000000000011001110110011101011110010111100101010001010100,
00000000000000000110010101100101010110000101100001001011110011000000000000000000011000011110001001010110010101100100100111001010,
00000000000000000110011001100110010101111101100001001000110010010000000000000000011001010110010101010111110110000100101001001010,
00000000000000000110010111100110010101001101010101000010110000110000000000000000011001000110010001010100110101010100010001000100,
00000000000000000110010001100100010100011101001000111011101111000000000000000000011001010110010101010011110101000011111111000000,
00000000000000000110010001100100010011111101000000110111001101110000000000000000011001000110010001010000110100010011100110111010,
00000000000000000110001111100100010011100100111000110100101101010000000000000000011000111110010001001110110011110011011000110110,
00000000000000000110001101100011010011001100110100110001101100100000000000000000011000110110001101001101010011010011001100110011,
00000000000000000110000111100010010010110100101100101111001011110000000000000000011000101110001101001011110011000011000000110000,
00000000000000000110100101101001011000111110010001011110010111100000000000000000011010010110100101100011011000110101111001011110,
00000000000000000110100111101010011000111110010001011110010111100000000000000000011010010110100101100011111001000101111001011110,
00000000000000000110100111101010011000111110010001011110010111100000000000000000011010011110101001100011111001000101111011011111,
00000000000000000110001101100011010111110101111101011100010111000000000000000000011010010110100101100011011000110101110111011110,
00000000000000000101111011011111010110000101100001010010110100110000000000000000010100111101010001001111010011110100101101001011,
00000000000000000110010101100101011000010110000101011011110111000000000000000000011001111110100001100011011000110101111001011110,
00000000000000000110001101100011011000000110000001011011010110110000000000000000011001001110010101100010011000100101110101011101,
00000000000000000101101011011011010101000101010001001001110010100000000000000000011000000110000001011011010110110101010101010101,
00000000000000000110001111100100010101100101011001001010010010100000000000000000010111010101110101010000010100000100000011000001,
00000000000000000110010101100101010101100101011001000111110010000000000000000000011000111110010001010101110101100100100101001001,
00000000000000000110010111100110010100110101001101000010010000100000000000000000011001011110011001010100110101010100010011000101,
00000000000000000110001111100100010100010101000100111100101111010000000000000000011001001110010101010010010100100011111111000000,
00000000000000000110001111100100010011110100111100111001101110100000000000000000011000110110001101001111110100000011101100111011,
00000000000000000110001011100011010011001100110100110110101101110000000000000000011000110110001101001101110011100011100000111000,
00000000000000000110001001100010010010110100101100110011001100110000000000000000011000100110001001001100010011000011010010110101,
00000000000000000110000101100001010010011100101000110000101100010000000000000000011000011110001001001010010010100011001000110010,
00000000000000000110010101100101010110000101100001001000010010000000000000000000011001010110010101011000010110000100100011001001,
00000000000000000110010101100101010110000101100001000111110010000000000000000000011001010110010101011000010110000100100001001000,
00000000000000000110010011100101010101111101100001001000010010000000000000000000011001010110010101010111110110000100011101000111,
00000000000000000101110111011110010110100101101001010101110101100000000000000000011000111110010001011101010111010101011001010110,
00000000000000000101100101011001010101001101010101010000010100000000000000000000010101010101010101010001010100010100110011001101,
00000000000000000101110001011100010101101101011101001111110100000000000000000000010111011101111001011001010110010101010001010100,
00000000000000000101101111011100010101101101011101001111010011110000000000000000010111010101110101010111110110000101000011010001,
00000000000000000101000011010001010010110100101101000010010000100000000000000000010100101101001101001110110011110100011111001000,
00000000000000000101010001010100010010101100101100111111001111110000000000000000010010101100101101000010010000100011010100110101,
00000000000000000101010111010110010010010100100100111011101111000000000000000000010101001101010101001010010010100011111010111111,
00000000000000000101111101011111010010100100101000110000001100000000000000000000010110100101101001001010110010110011100010111001,
00000000000000000101111101011111010010001100100100101100001011000000000000000000010111111110000001001001110010100010110110101110,
00000000000000000101111011011111010001111100100000101001101010100000000000000000010111101101111101001000010010000010101100101011,
00000000000000000101111001011110010001100100011000100111101010000000000000000000010111100101111001000110110001110010100010101001,
00000000000000000101110101011101010001001100010100100101101001100000000000000000010111011101111001000101110001100010011010100111,
00000000000000000101110001011100010000111100010000100011101001000000000000000000010111010101110101000100010001000010010000100100,
00000000000000000101111101011111010011001100110100110001001100010000000000000000010111111110000001001101010011010011001010110011,
00000000000000000101111001011110010010001100100100101010101010110000000000000000010111101101111101001010110010110010111000101110,
00000000000000000101110001011100010010001100100100101110101011110000000000000000010111011101111001000111110010000010100100101001,
00000000000000000101010001010100010011001100110101000100010001000000000000000000010101111101100001001110010011100100010101000101,
00000000000000000101101001011010010101101101011101010010010100100000000000000000010100111101010001001110110011110100100011001001,
00000000000000000100111101001111010010011100101001000011110001000000000000000000010100000101000001001010110010110100010101000101,
00000000000000000101011111011000010100101101001101001011110011000000000000000000010100000101000001001010110010110100001111000100,
00000000000000000100001001000010001101101011011100100011001000110000000000000000010100011101001001001001010010010011110110111110,
00000000000000000011110100111101001100100011001000011110000111100000000000000000001101111011100000101101001011010001101000011010,
00000000000000000011010000110100001010010010100100011000000110000000000000000000001111010011110100110010101100110010000010100001,
00000000000000000101010011010101001111001011110100010110100101110000000000000000001111110011111100110001001100010001100010011001,
00000000000000000101011111011000001111010011110100010011100101000000000000000000010101111101100000111101101111100001010100010101,
00000000000000000101011001010110001111000011110000010000100100010000000000000000010101101101011100111100101111010001001000010010,
00000000000000000101010101010101001110110011101100001110100011110000000000000000010101011101011000111011101111000000111110010000,
00000000000000000101010001010100001110100011101000001101000011010000000000000000010101010101010100111010101110110000110110001110,
00000000000000000101001111010100001110100011101000001011100011000000000000000000010101000101010000111010001110100000110010001101,
00000000000000000110010001100100010110010101100101000111010001110000000000000000011000101110001101010101110101100100001011000011,
00000000000000000110001111100100010110101101101101001010110010110000000000000000011000111110010001011010010110100100100011001001,
00000000000000000101101101011011010011010100110100111001101110100000000000000000011000000110000001010011110101000011111111000000,
00000000000000000101000111010010010010111100110001000100110001010000000000000000010101111101100001010001010100010100101101001011,
00000000000000000101000111010010010011001100110101000110010001100000000000000000010011110100111101001001110010100100000111000010,
00000000000000000100110101001101010010000100100001000010010000100000000000000000010100000101000001001011010010110100010111000110,
00000000000000000100111111010000010010101100101101000100110001010000000000000000010011101100111101001001110010100100001111000100,
00000000000000000101000011010001010001000100010000110001001100010000000000000000010011101100111101000101010001010011011010110111,
00000000000000000100101011001011001110010011100100011101000111010000000000000000010011101100111100111111001111110010011100100111,
00000000000000000100100011001001001101110011011100011011100111000000000000000000010010011100101000111000001110000001110000011100,
00000000000000000101010011010101001111000011110000010110000101100000000000000000010010111100110000111000101110010001100110011010,
00000000000000000101010101010101001110111011110000010010100100110000000000000000010101011101011000111100001111000001001110010100,
00000000000000000101001111010100001110100011101000001111100100000000000000000000010101001101010100111011001110110001000100010001,
00000000000000000101001011010011001110011011101000001101000011010000000000000000010100110101001100111001101110100000111010001111,
00000000000000000101001001010010001110001011100100001100000011000000000000000000010100101101001100111001001110010000110010001101,
00000000000000000101000101010001001110000011100000001010100010110000000000000000010100011101001000111000101110010000101110001100,
00000000000000000110000001100000010100110101001101000000010000000000000000000000010110110101101101000111110010000010110100101101,
00000000000000000110100101101001011010000110100001100000111000010000000000000000011001110110011101100010111000110101100101011001,
00000000000000000110011111101000011001110110011101100001011000010000000000000000011010100110101001101010111010110110010011100101,
00000000000000000100010111000110010001101100011101001101110011100000000000000000010110000101100001010110010101100101011001010110,
00000000000000000100110111001110010010100100101001000101010001010000000000000000010010011100101001001000010010000100100101001001,
00000000000000000101000101010001010011010100110101001000110010010000000000000000010100001101000101001100110011010100100011001001,
00000000000000000100111011001111010010100100101001000100110001010000000000000000010100000101000001001100010011000100011111001000,
00000000000000000101111011011111010110001101100101001111110100000000000000000000010011001100110101000011110001000011011010110111,
00000000000000000101101111011100010010110100101100110110101101110000000000000000011000111110010001011011110111000101001101010011,
00000000000000000101100001011000010000001100000100011111101000000000000000000000010101111101100001000010110000110010010110100110,
00000000000000000101010111010110001111011011111000011010000110100000000000000000010101110101011100111111110000000001111000011110,
00000000000000000101001001010010001110100011101000010001000100010000000000000000010100110101001100111010101110110001001010010011,
00000000000000000101000111010010001110010011100100001111100100000000000000000000010100010101000100111001001110010001000000010000,
00000000000000000101000101010001001110001011100100001110100011110000000000000000010100010101000100111001001110010000111100001111,
00000000000000000101000001010000001110000011100000001100100011010000000000000000010100001101000100111000101110010000110110001110,
00000000000000000100111101001111001101110011011100001011100011000000000000000000010011111101000000110111001101110000110000001100,
00000000000000000101101001011010010001100100011000101100101011010000000000000000010110001101100101000011110001000010100000101000,
00000000000000000110010011100101010111101101111101010100010101000000000000000000010111010101110101001101110011100011100110111010,
00000000000000000110100111101010011010100110101001100110011001100000000000000000011010001110100101101000011010000110001101100011,
00000000000000000100100001001000010001100100011001000011010000110000000000000000011000010110000101011110010111100101100111011010,
00000000000000000100100111001010010001010100010100111111001111110000000000000000010000000100000001000000010000000100001111000100,
00000000000000000100111101001111010010111100110001000111010001110000000000000000010011110100111101001011010010110100011011000111,
00000000000000000100110011001101010010011100101001000101110001100000000000000000010011110100111101001100010011000100100001001000,
00000000000000000101101001011010010101001101010101001011110011000000000000000000010011000100110001000110110001110011111010111111,
00000000000000000110000011100001010101101101011101001101010011010000000000000000011000111110010001011110110111110101100101011001,
00000000000000000101101111011100010010010100100100110100001101000000000000000000010111011101111001010000010100000100001011000011,
00000000000000000101010011010101001111100011111000011101100111100000000000000000010101101101011101000000110000010010001110100100,
00000000000000000100111111010000001110000011100000010000000100000000000000000000010100001101000100111001101110100001010000010100,
00000000000000000100111011001111001101110011011100001110000011100000000000000000010011101100111100110111101110000000111010001111,
00000000000000000100111011001111001101110011011100001101000011010000000000000000010011101100111100110111001101110000110110001110,
00000000000000000100111001001110001101101011011100001100000011000000000000000000010011101100111100110111001101110000110010001101,
00000000000000000100110101001101001101011011011000001100000011000000000000000000010011010100110100110110001101100000101110001100,
00000000000000000101101011011011010010101100101100111000001110000000000000000000010101101101011101000010110000110010100000101000,
00000000000000000101100111011010010010000100100000110010101100110000000000000000010110111101110001001100110011010011101100111011,
00000000000000000110010011100101011000000110000001011001010110010000000000000000010111111110000001010101010101010100100001001000,
00000000000000000110001111100100011000010110000101011101110111100000000000000000011001110110011101100100011001000101111111100000,
00000000000000000101000001010000010011100100111001001001110010100000000000000000010101111101100001010101110101100101000111010010,
00000000000000000100101101001011010001111100100001000011110001000000000000000000010011010100110101001010110010110100100001001000,
00000000000000000100110111001110010010100100101001000110010001100000000000000000010011010100110101001001110010100100011001000110,
00000000000000000100101111001100010010000100100001000001110000100000000000000000010011010100110101001010010010100100011011000111,
00000000000000000101010111010110010010010100100100111001101110100000000000000000010110000101100001010000010100000100010101000101,
00000000000000000101011111011000010001111100100000110100101101010000000000000000010110001101100101001001110010100011011100110111,
00000000000000000101001101010011010000011100001000101010101010110000000000000000010011111101000001000000010000000010110100101101,
00000000000000000100111001001110001101111011100000010000100100010000000000000000010100001101000100111100101111010001111110100000,
00000000000000000100110011001101001101100011011000001101000011010000000000000000010011010100110100110110101101110000111000001110,
00000000000000000100110001001100001101100011011000001101100011100000000000000000010011001100110100110110001101100000110100001101,
00000000000000000100101111001100001101010011010100001011100011000000000000000000010011000100110000110110001101100000111010001111,
00000000000000000100101001001010001101000011010000001010000010100000000000000000010010101100101100110100101101010000101100001011,
00000000000000000101001001010010010001000100010000110000101100010000000000000000010011101100111100111101101111100010001100100011,
00000000000000000101010111010110010001000100010000101101001011010000000000000000010101001101010101000101010001010011000010110001,
00000000000000000110000011100001010110011101101001010000110100010000000000000000010101111101100001000110010001100011000010110001,
00000000000000000110010111100110011000110110001101011111010111110000000000000000011001000110010001100001011000010101110101011101,
00000000000000000110011011100111011001011110011001100011011000110000000000000000011010001110100101100111111010000110010011100101,
00000000000000000101010011010101010100101101001101010000110100010000000000000000010111011101111001011101010111010101101101011011,
00000000000000000100100001001000010001010100010101000010010000100000000000000000010011000100110001001001110010100100011101000111,
00000000000000000100101011001011010001100100011001000000010000000000000000000000010010011100101001000110110001110100001011000011,
00000000000000000110000111100010010110100101101001010011010100110000000000000000010110000101100001010100110101010100111101001111,
00000000000000000110000101100001010101001101010101001010110010110000000000000000011000010110000101010111010101110100111001001110,
00000000000000000101111111100000010011110100111101000000110000010000000000000000011000001110000101010010110100110100011011000111,
00000000000000000100011111001000001101110011011100011010000110100000000000000000010101100101011001000101010001010011001000110010,
00000000000000000100101011001011001101100011011000010000100100010000000000000000010010100100101000111000101110010001100010011001,
00000000000000000100100101001001001101010011010100001111000011110000000000000000010010100100101000110100101101010000110010001101,
00000000000000000100100011001001001100110011001100001010000010100000000000000000010010000100100000110100101101010001000000010000,
00000000000000000100011101000111001100101011001100001001100010100000000000000000010001111100100000110010101100110000101000001010,
00000000000000000101000011010001001111010011110100011111000111110000000000000000010100011101001000111101101111100001111010011111,
00000000000000000101010111010110010010010100100100110111001101110000000000000000010100000101000001000000010000000010011100100111,
00000000000000000101011111011000010010111100110000111100101111010000000000000000010101010101010101000110110001110011001000110010,
00000000000000000110011101100111011010000110100001100101111001100000000000000000011000101110001101100000111000010101110101011101,
00000000000000000110100011101001011010001110100101100101111001100000000000000000011001101110011101100110011001100110001101100011,
00000000000000000110001111100100011000101110001101011111111000000000000000000000011001111110100001101000111010010110011001100110,
00000000000000000101000111010010010011101100111101001011010010110000000000000000010111000101110001011010110110110101011111011000,
00000000000000000100010001000100010000001100000100111011101111000000000000000000010010010100100101000101110001100100000111000010,
00000000000000000101011011010111010011011100111001000010110000110000000000000000010011100100111001001010010010100100010001000100,
00000000000000000101011011010111010010100100101000111101001111010000000000000000010101010101010101001010010010100011110110111110,
00000000000000000101011111011000010010101100101100111110001111100000000000000000010110010101100101001011110011000011111100111111,
00000000000000000100000001000000001110000011100000101001101010100000000000000000010011011100111001000000110000010011000110110010,
00000000000000000101000101010001010010011100101000111110001111100000000000000000010100001101000101001101010011010100011111001000,
00000000000000000100011101000111001101101011011100010110000101100000000000000000010011001100110100111111001111110010011100100111,
00000000000000000100011101000111001100110011001100001010100010110000000000000000010001100100011000110011101101000000111110010000,
00000000000000000100010111000110001100011011001000001010100010110000000000000000010001100100011000110010101100110000101010001011,
00000000000000000100110101001101001110011011101000011000100110010000000000000000010011000100110000111000101110010001011010010111,
00000000000000000100101011001011001110010011100100011001100110100000000000000000010010111100110000111001001110010001100010011001,
00000000000000000100110111001110010000100100001000110001001100010000000000000000010010111100110000111110001111100010010110100110,
00000000000000000101110011011101010110110101101101011000010110000000000000000000010100110101001101001100110011010100001111000100,
00000000000000000110000111100010011000011110001001011111111000000000000000000000011010000110100001101010111010110110100101101001,
00000000000000000110100101101001011010001110100101100101111001100000000000000000011000101110001101100010111000110110000001100000,
00000000000000000110001011100011010111011101111001010111110110000000000000000000011001110110011101100101011001010110000111100010,
00000000000000000101000001010000010010001100100100111111110000000000000000000000010111010101110101010110110101110100111101001111,
00000000000000000101001011010011010001101100011100111000101110010000000000000000010010000100100000111111001111110011001000110010,
00000000000000000101001111010100010010110100101101000000110000010000000000000000010100011101001001000111110010000011101010111011,
00000000000000000100110011001101010001011100011000111011101111000000000000000000010100110101001101001100110011010100010011000101,
00000000000000000100000001000000001110111011110000110000101100010000000000000000010001100100011000111110101111110011001100110011,
00000000000000000101011011010111010101100101011001010110010101100000000000000000010100101101001101010001110100100100111101001111,
00000000000000000101001111010100010010110100101100111111001111110000000000000000010101101101011101010100010101000101000101010001,
00000000000000000100010001000100001100010011000100001010000010100000000000000000010010101100101100111100101111010010001000100010,
00000000000000000100001011000011001011111011000000001001000010010000000000000000010000101100001100110000001100000000100010001001,
00000000000000000100110011001101001110010011100100011000000110000000000000000000010011001100110100111001001110010001011110011000,
00000000000000000100101101001011001101110011011100010101000101010000000000000000010010101100101100110111101110000001010110010110,
00000000000000000100010011000101001101000011010000010100000101000000000000000000010010001100100100110101101101100001001010010011,
00000000000000000100110011001101010001101100011100111010101110110000000000000000001111111100000000110010101100110001100000011000,
00000000000000000110011011100111011010100110101001101001111010100000000000000000011000100110001001100100011001000110001011100011,
00000000000000000101101111011100010110011101101001010110110101110000000000000000011000001110000101100010011000100110001001100010,
00000000000000000110100011101001011001011110011001100000111000010000000000000000011001000110010001100001011000010101101111011100,
00000000000000000110010001100100010110011101101001001101110011100000000000000000011001101110011101100000011000000101011111011000,
00000000000000000101101101011011010010111100110000111010001110100000000000000000010111001101110101010000110100010100001001000010,
00000000000000000100111001001110001111101011111100101010001010100000000000000000010101010101010101000100110001010011000010110001,
00000000000000000100000011000001001101011011011000100011101001000000000000000000010001000100010000110111001101110010001110100100,
00000000000000000100010001000100001111001011110100101110101011110000000000000000010000010100000100110111101110000010100000101000,
00000000000000000101000001010000010011001100110101000101010001010000000000000000010010110100101101000101010001010011101000111010,
00000000000000000100110111001110010001000100010000110111101110000000000000000000010100010101000101001101110011100100011111001000,
00000000000000000100000111000010001011111011000000001010100010110000000000000000010010101100101100111101001111010010011100100111,
00000000000000000100000001000000001011100010111000001000000010000000000000000000010000001100000100101110101011110000100010001001,
00000000000000000100101111001100001110000011100000010111100110000000000000000000010011000100110000111001001110010001100010011001,
00000000000000000100101101001011001101111011100000010111100110000000000000000000010010111100110000111000001110000001011110011000,
00000000000000000100100001001000001101100011011000011000000110000000000000000000010010101100101100110111101110000001011010010111,
00000000000000000011111111000000001101000011010000011111000111110000000000000000010000010100000100110011001100110001101000011010,
00000000000000000101101001011010010110011101101001010111110110000000000000000000010001011100011000111110001111100011000110110010,
00000000000000000110000101100001011001000110010001100100011001000000000000000000011001111110100001101011111011000110110001101100,
00000000000000000101011011010111010100111101010001001111010011110000000000000000010101000101010001010011110101000101001011010011,
00000000000000000110010111100110010111101101111101010101010101010000000000000000011000011110001001011101110111100101011001010110,
00000000000000000110001101100011010101100101011001000111110010000000000000000000011001000110010001011010110110110100111011001111,
00000000000000000101011101010111010001011100011000110000101100010000000000000000010111100101111001001101110011100011101110111100,
00000000000000000100100111001010001110101011101100100000101000010000000000000000010011101100111100111111001111110010100010101001,
00000000000000000100010111000110001101110011011100011100100111010000000000000000010001101100011100110111001101110001110010011101,
00000000000000000100000111000010001101001011010100011011100111000000000000000000010001000100010000110111001101110001110110011110,
00000000000000000011101000111010001011011010111000010011100101000000000000000000001111011011111000110001001100010001100010011001,
00000000000000000011111000111110001011010010110100001000000010000000000000000000001111010011110100101100101011010000101000001010,
00000000000000000011110000111100001010111010110000001000100010010000000000000000001110111011110000101011101011000000100000001000,
00000000000000000100011101000111001101010011010100010100000101000000000000000000010001111100100000110101101101100001010000010100,
00000000000000000100011101000111001101010011010100010100000101000000000000000000010001101100011100110100101101010001001100010011,
00000000000000000100010011000101001101000011010000010110100101110000000000000000010010000100100000110101101101100001010110010110,
00000000000000000100000001000000001100111011010000011100100111010000000000000000010001000100010000110101001101010001101000011010,
00000000000000000100111011001111010010100100101001000001110000100000000000000000010000010100000100110110001101100010010000100100,
00000000000000000110011011100111011010101110101101101010111010110000000000000000010111010101110101011110110111110101110011011101,
00000000000000000101100111011010010110101101101101010111110110000000000000000000011001111110100001101100011011000110110001101100,
00000000000000000100100001001000010000010100000100110111101110000000000000000000010001000100010001000000010000000011100010111001,
00000000000000000110000001100000010101001101010101000111110010000000000000000000010101111101100001001110110011110100001111000100,
00000000000000000101100101011001010001110100011100110001001100010000000000000000010111110101111101001111110100000011111010111111,
00000000000000000100111101001111001111010011110100100000101000010000000000000000010100110101001101000000010000000010010110100110,
00000000000000000100100111001010001110001011100100011011000110110000000000000000010011100100111000111100001111000001111100011111,
00000000000000000100001101000011001101011011011000011100000111000000000000000000010001100100011000111000001110000001111010011111,
00000000000000000011101100111011001011000010110000001011100011000000000000000000001111001011110100101111001011110001010000010100,
00000000000000000011101110111100001010111010110000000111100010000000000000000000001111000011110000101100001011000000100100001001,
00000000000000000011101000111010001010101010101100000111100010000000000000000000001110110011101100101011001010110000011110001000,
00000000000000000100010011000101001100111011010000010010100100110000000000000000010001011100011000110100101101010001010000010100,
00000000000000000100010011000101001100110011001100010001100100100000000000000000010001001100010100110011101101000001000110010010,
00000000000000000100000111000010001100010011000100010000100100010000000000000000010000010100000100110000101100010000111110010000,
00000000000000000011110100111101001100000011000000010110000101100000000000000000010000100100001000110010001100100001001100010011,
00000000000000000011101100111011001100001011000100011011000110110000000000000000001110111011110000101111101100000001011110011000,
00000000000000000100000001000000001110111011110000110000101100010000000000000000001110110011101100110011001100110010001100100011,
00000000000000000101111001011110011000010110000101011111010111110000000000000000010100101101001101010011010100110100111011001111,
00000000000000000101000011010001010100011101001001001101010011010000000000000000010111011101111001100000111000010101111011011111,
00000000000000000100010111000110001111111100000000110011101101000000000000000000010001000100010001000010010000100011101000111010,
00000000000000000100110011001101001111001011110100100011101001000000000000000000010010110100101100111111001111110010110010101101,
00000000000000000100111101001111001111001011110100011110100111110000000000000000010011001100110100111011001110110001111100011111,
00000000000000000100110001001100001110011011101000011010000110100000000000000000010011000100110000111011001110110001111010011111,
00000000000000000011111100111111001100001011000100010101000101010000000000000000010010001100100100110111001101110001100000011000,
00000000000000000011001100110011001001011010011000001001100010100000000000000000001100111011010000100110101001110000110100001101,
00000000000000000011011110111000001010001010100100001000000010000000000000000000001101100011011000100111101010000000100000001000,
00000000000000000011100000111000001010010010100100000111100010000000000000000000001110001011100100101001001010010000011100000111,
00000000000000000011111100111111001011111011000000001111000011110000000000000000001111110011111100101111101100000000111010001111,
00000000000000000011111111000000001011111011000000001110000011100000000000000000001111111100000000101111101100000000111100001111,
00000000000000000100001001000010001100011011001000010000000100000000000000000000001111111100000000101111101100000000111000001110,
00000000000000000011110100111101001011110010111100010010100100110000000000000000010000001100000100110000101100010001000110010010,
00000000000000000011100000111000001011001010110100010011000100110000000000000000001110100011101000101101101011100001010000010100,
00000000000000000010111100101111001001111010100000010101100101100000000000000000001100101011001100101001101010100001010000010100,
00000000000000000011000110110010001011010010110100011111101000000000000000000000001100001011000100101010101010110001101010011011,
00000000000000000100000101000001010000001100000100111001001110010000000000000000001101101011011100110011101101000010100010101001,
00000000000000000101011111011000010110010101100101010110010101100000000000000000010100011101001001010010110100110100111101001111,
00000000000000000101001011010011010001100100011000110001001100010000000000000000010101101101011101010101110101100100111011001111,
00000000000000000100111101001111001110110011101100011010000110100000000000000000010010101100101100111000101110010001100110011010,
00000000000000000100110111001110001110100011101000011001000110010000000000000000010011111101000000111011101111000001101010011011,
00000000000000000011111100111111001011110010111100010001100100100000000000000000010011001100110100111001001110010001100000011000,
00000000000000000010111000101110001000100010001000001010100010110000000000000000001011100010111000100010101000110000101110001100,
00000000000000000011001110110100001001011010011000001000000010000000000000000000001100010011000100100100001001000000100100001001,
00000000000000000011010100110101001001101010011100001000000010000000000000000000001101010011010100100110101001110000011110001000,
00000000000000000100000011000001001100001011000100010000000100000000000000000000010000010100000100110001101100100001000100010001,
00000000000000000011111111000000001011111011000000001110100011110000000000000000001111110011111100101111101100000000111010001111,
00000000000000000100000111000010001100011011001000010010000100100000000000000000010000011100001000110001001100010001000100010001,
00000000000000000011101010111011001011010010110100010001000100010000000000000000001111010011110100101111001011110001001010010011,
00000000000000000011010010110101001010100010101000010010000100100000000000000000001110001011100100101100001011000001000110010010,
00000000000000000010111110110000001001110010011100010011000100110000000000000000001100010011000100100111101010000001001000010010,
00000000000000000010110110101110001001110010011100010101100101100000000000000000001011011010111000100110101001110001010000010100,
00000000000000000010100110101010001001001010010100010100000101000000000000000000001010111010110000100110001001100001010100010101,
00000000000000000010011010100111001000101010001100010110000101100000000000000000001001111010100000100011001000110001010010010101,
00000000000000000010011110101000001000100010001000010111000101110000000000000000001001101010011100100010101000110001100000011000,
00000000000000000011110100111101001011010010110100010010100100110000000000000000001010100010101000100000001000000000111010001111,
00000000000000000100001011000011001100101011001100010011000100110000000000000000010001010100010100110011101101000001010000010100,
00000000000000000011011000110110001010000010100000001110000011100000000000000000010000111100010000110010101100110001001100010011,
00000000000000000010100110101010000111110001111100001010100010110000000000000000001010011010101000011111101000000000101100001011,
00000000000000000010111100101111001000101010001100001001100010100000000000000000001010101010101100011111101000000000101010001011,
00000000000000000011001110110100001001100010011000001000100010010000000000000000001100111011010000100101101001100000100010001001,
00000000000000000011110000111100001011100010111000001110100011110000000000000000001111101011111100110000001100000001000110010010,
00000000000000000011110000111100001011011010111000001101100011100000000000000000001110110011101100101101001011010000110110001110,
00000000000000000011100110111010001010111010110000001011100011000000000000000000001111001011110100101101101011100000110110001110,
00000000000000000011100000111000001010110010101100001110100011110000000000000000001110000011100000101010101010110000101110001100,
00000000000000000011000100110001001001101010011100001110000011100000000000000000001101010011010100101001101010100001000000010000,
00000000000000000010111000101110001001010010010100001111000011110000000000000000001100000011000000100110001001100000111010001111,
00000000000000000010101100101011001001000010010000010001100100100000000000000000001011000010110000100100101001010001000100010001,
00000000000000000010011110101000001000100010001000010000100100010000000000000000001010011010101000100011001000110001000100010001,
00000000000000000010001110100100000111101001111100001111000011110000000000000000001001100010011000100000101000010001000000010000,
00000000000000000001110000011100000101101001011100001000100010010000000000000000000111111010000000011010100110110000101110001100,
00000000000000000001010010010101000011110000111100000101000001010000000000000000000110000001100000010010000100100000011010000111,
00000000000000000010000000100000000101111001100000001000000010000000000000000000000101111001100000010001000100010000011000000110,
00000000000000000001101010011011000100110001001100000111000001110000000000000000001001001010010100011011100111000000100110001010,
00000000000000000010010100100101000110111001110000001010000010100000000000000000001000011010001000011000100110010000100100001001,
00000000000000000010011110101000000111001001110100001010000010100000000000000000001001011010011000011011100111000000101000001010,
00000000000000000010111010101111001000100010001000001001100010100000000000000000001010101010101100011110100111110000101000001010,
00000000000000000011100000111000001010110010101100001110100011110000000000000000001101111011100000101010101010110000110110001110,
00000000000000000011100100111001001010111010110000001100000011000000000000000000001110000011100000101011001010110000110010001101,
00000000000000000011011000110110001010010010100100001001100010100000000000000000001101101011011100101001101010100000101100001011,
00000000000000000011011100110111001010100010101000001011000010110000000000000000001101110011011100101010001010100000101000001010,
00000000000000000010111010101111001001001010010100001101000011010000000000000000001100001011000100100101101001100000110010001101,
00000000000000000010110110101110001001000010010000001101100011100000000000000000001011101010111100100101001001010000110100001101,
00000000000000000010100100101001001000001010000100001100100011010000000000000000001010111010110000100010101000110000110110001110,
00000000000000000010011100100111001000010010000100001111100100000000000000000000001001111010100000100000001000000000110110001110,
00000000000000000010010000100100000111101001111100001110000011100000000000000000001001101010011100100001001000010001000010010001,
00000000000000000001110110011110000101111001100000001001000010010000000000000000001000011010001000011011100111000000101110001100,
00000000000000000001100100011001000100110001001100000110100001110000000000000000000110110001101100010100100101010000011110001000,
00000000000000000001001010010011000011010000110100000100000001000000000000000000000101010001010100001111100100000000010110000110,
00000000000000000001011000010110000011111001000000000110000001100000000000000000000101001001010100001110100011110000010100000101,
00000000000000000010001010100011000110011001101000001001000010010000000000000000000111001001110100010100100101010000100000001000,
00000000000000000010011010100111000111001001110100001010000010100000000000000000001001010010010100011011100111000000101000001010,
00000000000000000010011010100111000110111001110000001010000010100000000000000000001001101010011100011100000111000000101000001010,
00000000000000000011010100110101001010010010100100001100000011000000000000000000001101100011011000101001101010100000101110001100,
00000000000000000011010110110110001010010010100100001010100010110000000000000000001101101011011100101010001010100000101110001100,
00000000000000000011011000110110001010010010100100001010000010100000000000000000001101100011011000101001001010010000101010001011,
00000000000000000011010010110101001010000010100000001010100010110000000000000000001101101011011100101001101010100000101010001011,
00000000000000000010111100101111001001001010010100001010100010110000000000000000001011110010111100100011101001000000101000001010,
00000000000000000010110100101101001000111010010000001110000011100000000000000000001011111011000000100101001001010000110000001100,
00000000000000000010100010101001001000000010000000001100000011000000000000000000001010011010101000100001001000010000110100001101,
00000000000000000010011110101000001000001010000100001110000011100000000000000000001001110010011100011111000111110000110000001100,
00000000000000000010010110100110000111111010000000001110000011100000000000000000001001111010100000100001001000010000111110010000,
00000000000000000001111100011111000110001001100100001001000010010000000000000000001000010010000100011010100110110000101010001011,
00000000000000000001101110011100000101001001010100000111100010000000000000000000000111011001111000010110100101110000100010001001,
00000000000000000001011110011000000100001001000100000110000001100000000000000000000110100001101000010011000100110000011110001000,
00000000000000000001011110011000000100010001000100000110100001110000000000000000000101001001010100001110000011100000010100000101,
00000000000000000001111100011111000101101001011100001000100010010000000000000000000111010001110100010101000101010000100000001000,
00000000000000000001111100011111000101101001011100001000100010010000000000000000000111101001111100010110000101100000100010001001,
00000000000000000010000000100000000101101001011100001001000010010000000000000000000111111010000000010110100101110000100010001001,
00000000000000000011011010110111001010100010101000001100000011000000000000000000001101011011011000101001101010100000110000001100,
00000000000000000011001110110100001001111010100000001010100010110000000000000000001100111011010000101000001010000000101110001100,
00000000000000000011010000110100001001111010100000001010000010100000000000000000001101010011010100101000101010010000101010001011,
00000000000000000011000010110001001001010010010100001001100010100000000000000000001101000011010000100111101010000000100100001001,
00000000000000000010111010101111001001000010010000001010000010100000000000000000001011010010110100100010001000100000101000001010,
00000000000000000010101110101100001000011010001000001010100010110000000000000000001011100010111000100011101001000000101000001010,
00000000000000000010100010101001001000000010000000001100000011000000000000000000001010011010101000100000001000000000110000001100,
00000000000000000010011110101000001000000010000000001101000011010000000000000000001010000010100000100000001000000000110010001101,
00000000000000000010010000100100000111010001110100001100000011000000000000000000001001111010100000100000101000010000111010001111,
00000000000000000010000000100000000110001001100100001001100010100000000000000000001000010010000100011010000110100000101010001011,
00000000000000000001110100011101000101011001011000001000100010010000000000000000000111101001111100010111000101110000100100001001,
00000000000000000001100100011001000100010001000100000111100010000000000000000000000110110001101100010011000100110000100000001000,
00000000000000000001101000011010000100101001001100000111000001110000000000000000000110000001100000010000100100010000011010000111,
00000000000000000001110000011100000101000001010000001000000010000000000000000000000111011001111000010101000101010000100000001000,
00000000000000000001111010011111000101100001011000001000100010010000000000000000000111100001111000010101000101010000100010001001,
00000000000000000001111100011111000101100001011000001000100010010000000000000000000111011001111000010101000101010000100010001001,
00000000000000000011000000110000001001010010010100001010100010110000000000000000001101001011010100101001001010010000111000001110,
00000000000000000011001010110011001001101010011100001010000010100000000000000000001011111011000000100100101001010000101010001011,
00000000000000000011000100110001001001011010011000001001100010100000000000000000001100000011000000100101101001100000101110001100,
00000000000000000010111100101111001000111010010000001001100010100000000000000000001100100011001000100110001001100000100100001001,
00000000000000000010111000101110001000110010001100001011000010110000000000000000001011100010111000100011001000110000101100001011,
00000000000000000010101110101100001000010010000100001010100010110000000000000000001011001010110100100010001000100000101010001011,
00000000000000000010100000101000000111111010000000001011100011000000000000000000001010100010101000100000101000010000101110001100,
00000000000000000010011110101000000111110001111100001100000011000000000000000000001001111010100000011111101000000000101110001100,
00000000000000000010010010100101000110111001110000001010100010110000000000000000001001110010011100011110100111110000110010001101,
00000000000000000010000110100010000110010001100100001010000010100000000000000000001000100010001000011001100110100000101000001010,
00000000000000000001111000011110000101100001011000001001000010010000000000000000001000000010000000010111100110000000100110001010,
00000000000000000001101110011100000100111001010000001000100010010000000000000000000111010001110100010100100101010000100100001001,
00000000000000000001100010011001000100010001000100000111000001110000000000000000000110010001100100010001000100010000011110001000,
00000000000000000001111010011111000101100001011000001000100010010000000000000000000110111001110000010011100101000000011110001000,
00000000000000000001110010011101000101000001010000001000000010000000000000000000000111101001111100010101100101100000100010001001,
00000000000000000001101100011011000100110001001100001000000010000000000000000000000110111001110000010011000100110000011110001000,
00000000000000000010110010101101001000100010001000001011000010110000000000000000001011001010110100100011101001000000111000001110,
00000000000000000011000000110000001001010010010100001010000010100000000000000000001011110010111100100100101001010000101000001010,
00000000000000000011000010110001001001011010011000001011000010110000000000000000001011111011000000100101001001010000101110001100,
00000000000000000010110010101101001000100010001000001010000010100000000000000000001011111011000000100100001001000000101000001010,
00000000000000000010110000101100001000010010000100001010100010110000000000000000001011000010110000100001001000010000101000001010,
00000000000000000010110000101100001000011010001000001010100010110000000000000000001011000010110000100001101000100000101010001011,
00000000000000000010100000101000000111101001111100001011000010110000000000000000001010100010101000100000001000000000101100001011,
00000000000000000010011110101000000111110001111100001100000011000000000000000000001001111010100000011110000111100000101100001011,
00000000000000000010010100100101000111000001110000001010100010110000000000000000001001101010011100011110000111100000110000001100,
00000000000000000010001010100011000110011001101000001010000010100000000000000000001000101010001100011001100110100000101000001010,
00000000000000000001111010011111000101011001011000001001000010010000000000000000001000001010000100010111100110000000100110001010,
00000000000000000001110010011101000100111001010000001001000010010000000000000000000111010001110100010100000101000000100110001010,
00000000000000000001101010011011000100101001001100001000000010000000000000000000000110111001110000010011000100110000100010001001,
00000000000000000001101000011010000100100001001000000111100010000000000000000000000110100001101000010001100100100000011100000111,
00000000000000000010000010100001000101110001011100001001000010010000000000000000000111011001111000010100100101010000100010001001,
00000000000000000001101100011011000100110001001100001000000010000000000000000000000111101001111100010101100101100000100010001001,
00000000000000000010110100101101001000110010001100001011000010110000000000000000001010111010110000100010001000100000110100001101,
00000000000000000010111100101111001001001010010100001010100010110000000000000000001011110010111100100100101001010000101010001011,
00000000000000000010110110101110001000110010001100001010000010100000000000000000001011111011000000100100101001010000101100001011,
00000000000000000010101100101011001000000010000000001010000010100000000000000000001010111010110000100001001000010000101000001010,
00000000000000000010110000101100001000010010000100001010000010100000000000000000001010111010110000100000101000010000100110001010,
00000000000000000010101110101100001000010010000100001010100010110000000000000000001011000010110000100001001000010000101010001011,
00000000000000000010011110101000000111011001111000001011000010110000000000000000001010001010100100011110100111110000101100001011,
00000000000000000010011010100111000111001001110100001011000010110000000000000000001001101010011100011100100111010000101010001011,
00000000000000000010010100100101000111000001110000001010100010110000000000000000001001100010011000011100100111010000101110001100,
00000000000000000010001100100011000110010001100100001010000010100000000000000000001000111010010000011001100110100000101000001010,
00000000000000000010000000100000000101100001011000001001100010100000000000000000001000011010001000010111100110000000100110001010,
00000000000000000001110110011110000101000001010000001001100010100000000000000000000111110001111100010101000101010000100110001010,
00000000000000000001110100011101000101000001010000001001000010010000000000000000000111001001110100010011100101000000100100001001,
00000000000000000001110110011110000101000001010000001000100010010000000000000000001000000010000000010110100101110000100100001001,
00000000000000000001110110011110000101001001010100001001000010010000000000000000000111000001110000010011100101000000100010001001,
00000000000000000001110100011101000101000001010000001000100010010000000000000000000111111010000000010110000101100000100100001001;
